const unsigned char model_tflite[] = {
  0x1C, 0x00, 0x00, 0x00, 0x54, 0x46, 0x4C, 0x33, 0x14, 0x00,
  0x20, 0x00, 0x1C, 0x00, 0x18, 0x00, 0x14, 0x00, 0x10, 0x00,
  0x0C, 0x00, 0x00, 0x00, 0x08, 0x00, 0x04, 0x00, 0x14, 0x00,
  0x00, 0x00, 0x1C, 0x00, 0x00, 0x00, 0x1C, 0x00, 0x00, 0x00,
  0x6C, 0x00, 0x00, 0x00, 0x68, 0x18, 0x00, 0x00, 0x78, 0x18,
  0x00, 0x00, 0x6C, 0x28, 0x00, 0x00, 0x03, 0x00, 0x00, 0x00,
  0x00, 0x00, 0x00, 0x00, 0x02, 0x00, 0x00, 0x00, 0x2C, 0x00,
  0x00, 0x00, 0x04, 0x00, 0x00, 0x00, 0x64, 0xE6, 0xFF, 0xFF,
  0x1F, 0x00, 0x00, 0x00, 0x04, 0x00, 0x00, 0x00, 0x13, 0x00,
  0x00, 0x00, 0x43, 0x4F, 0x4E, 0x56, 0x45, 0x52, 0x53, 0x49,
  0x4F, 0x4E, 0x5F, 0x4D, 0x45, 0x54, 0x41, 0x44, 0x41, 0x54,
  0x41, 0x00, 0x88, 0xE6, 0xFF, 0xFF, 0x1E, 0x00, 0x00, 0x00,
  0x04, 0x00, 0x00, 0x00, 0x13, 0x00, 0x00, 0x00, 0x6D, 0x69,
  0x6E, 0x5F, 0x72, 0x75, 0x6E, 0x74, 0x69, 0x6D, 0x65, 0x5F,
  0x76, 0x65, 0x72, 0x73, 0x69, 0x6F, 0x6E, 0x00, 0x20, 0x00,
  0x00, 0x00, 0xF8, 0x17, 0x00, 0x00, 0xF0, 0x17, 0x00, 0x00,
  0xC8, 0x17, 0x00, 0x00, 0x98, 0x17, 0x00, 0x00, 0x58, 0x17,
  0x00, 0x00, 0x18, 0x17, 0x00, 0x00, 0x58, 0x15, 0x00, 0x00,
  0xC8, 0x0D, 0x00, 0x00, 0x08, 0x0C, 0x00, 0x00, 0x98, 0x08,
  0x00, 0x00, 0xC8, 0x01, 0x00, 0x00, 0xAC, 0x01, 0x00, 0x00,
  0x78, 0x01, 0x00, 0x00, 0x58, 0x01, 0x00, 0x00, 0x38, 0x01,
  0x00, 0x00, 0x18, 0x01, 0x00, 0x00, 0xF8, 0x00, 0x00, 0x00,
  0xF0, 0x00, 0x00, 0x00, 0xE8, 0x00, 0x00, 0x00, 0xE0, 0x00,
  0x00, 0x00, 0xD8, 0x00, 0x00, 0x00, 0xD0, 0x00, 0x00, 0x00,
  0xC8, 0x00, 0x00, 0x00, 0xC0, 0x00, 0x00, 0x00, 0xB8, 0x00,
  0x00, 0x00, 0xB0, 0x00, 0x00, 0x00, 0xA8, 0x00, 0x00, 0x00,
  0xA0, 0x00, 0x00, 0x00, 0x98, 0x00, 0x00, 0x00, 0x90, 0x00,
  0x00, 0x00, 0x70, 0x00, 0x00, 0x00, 0x04, 0x00, 0x00, 0x00,
  0xB6, 0xE8, 0xFF, 0xFF, 0x04, 0x00, 0x00, 0x00, 0x5C, 0x00,
  0x00, 0x00, 0x0C, 0x00, 0x00, 0x00, 0x08, 0x00, 0x0E, 0x00,
  0x08, 0x00, 0x04, 0x00, 0x08, 0x00, 0x00, 0x00, 0x14, 0x00,
  0x00, 0x00, 0x2C, 0x00, 0x00, 0x00, 0x00, 0x00, 0x0A, 0x00,
  0x0C, 0x00, 0x08, 0x00, 0x00, 0x00, 0x07, 0x00, 0x0A, 0x00,
  0x00, 0x00, 0x00, 0x00, 0x00, 0x01, 0x04, 0x00, 0x00, 0x00,
  0x00, 0x00, 0x00, 0x00, 0x00, 0x00, 0x0A, 0x00, 0x10, 0x00,
  0x0C, 0x00, 0x08, 0x00, 0x04, 0x00, 0x0A, 0x00, 0x00, 0x00,
  0x03, 0x00, 0x00, 0x00, 0x02, 0x00, 0x00, 0x00, 0x04, 0x00,
  0x00, 0x00, 0x06, 0x00, 0x00, 0x00, 0x32, 0x2E, 0x31, 0x35,
  0x2E, 0x30, 0x00, 0x00, 0x1E, 0xE9, 0xFF, 0xFF, 0x04, 0x00,
  0x00, 0x00, 0x10, 0x00, 0x00, 0x00, 0x32, 0x2E, 0x30, 0x2E,
  0x30, 0x00, 0x00, 0x00, 0x00, 0x00, 0x00, 0x00, 0x00, 0x00,
  0x00, 0x00, 0x28, 0xD9, 0xFF, 0xFF, 0x2C, 0xD9, 0xFF, 0xFF,
  0x30, 0xD9, 0xFF, 0xFF, 0x34, 0xD9, 0xFF, 0xFF, 0x38, 0xD9,
  0xFF, 0xFF, 0x3C, 0xD9, 0xFF, 0xFF, 0x40, 0xD9, 0xFF, 0xFF,
  0x44, 0xD9, 0xFF, 0xFF, 0x48, 0xD9, 0xFF, 0xFF, 0x4C, 0xD9,
  0xFF, 0xFF, 0x50, 0xD9, 0xFF, 0xFF, 0x54, 0xD9, 0xFF, 0xFF,
  0x58, 0xD9, 0xFF, 0xFF, 0x6E, 0xE9, 0xFF, 0xFF, 0x04, 0x00,
  0x00, 0x00, 0x10, 0x00, 0x00, 0x00, 0x00, 0x00, 0x00, 0x00,
  0x00, 0x00, 0x00, 0x00, 0x01, 0x00, 0x00, 0x00, 0x00, 0x00,
  0x00, 0x00, 0x8A, 0xE9, 0xFF, 0xFF, 0x04, 0x00, 0x00, 0x00,
  0x10, 0x00, 0x00, 0x00, 0x01, 0x00, 0x00, 0x00, 0x01, 0x00,
  0x00, 0x00, 0x01, 0x00, 0x00, 0x00, 0x01, 0x00, 0x00, 0x00,
  0xA6, 0xE9, 0xFF, 0xFF, 0x04, 0x00, 0x00, 0x00, 0x10, 0x00,
  0x00, 0x00, 0x00, 0x00, 0x00, 0x00, 0x01, 0x00, 0x00, 0x00,
  0x00, 0x00, 0x00, 0x00, 0x00, 0x00, 0x00, 0x00, 0xC2, 0xE9,
  0xFF, 0xFF, 0x04, 0x00, 0x00, 0x00, 0x10, 0x00, 0x00, 0x00,
  0x00, 0x00, 0x00, 0x00, 0x00, 0x00, 0x00, 0x00, 0x00, 0x00,
  0x00, 0x00, 0x00, 0x00, 0x00, 0x00, 0xDE, 0xE9, 0xFF, 0xFF,
  0x04, 0x00, 0x00, 0x00, 0x24, 0x00, 0x00, 0x00, 0x55, 0xC6,
  0xB0, 0x3F, 0x1B, 0x8C, 0x63, 0xBE, 0x64, 0x0F, 0x2E, 0x3E,
  0xE6, 0x70, 0xF5, 0x3E, 0xC0, 0x0B, 0x1B, 0xBE, 0xCC, 0xE2,
  0xBB, 0xBE, 0x0D, 0x49, 0x5C, 0x3D, 0x26, 0xFF, 0x12, 0xBF,
  0xD4, 0x46, 0xCD, 0x3E, 0x0E, 0xEA, 0xFF, 0xFF, 0x04, 0x00,
  0x00, 0x00, 0x0C, 0x00, 0x00, 0x00, 0x01, 0x00, 0x00, 0x00,
  0x01, 0x00, 0x00, 0x00, 0x0C, 0x00, 0x00, 0x00, 0x26, 0xEA,
  0xFF, 0xFF, 0x04, 0x00, 0x00, 0x00, 0xC0, 0x06, 0x00, 0x00,
  0x7D, 0x97, 0x09, 0x3E, 0x95, 0xC7, 0x6A, 0xBF, 0xA7, 0x7A,
  0xC0, 0x3D, 0x5A, 0x9C, 0x64, 0x3F, 0x7C, 0x9F, 0x0E, 0x40,
  0x93, 0x61, 0x86, 0x3E, 0x26, 0xA1, 0x1B, 0xBF, 0x00, 0xBE,
  0xF8, 0xBF, 0x47, 0x2D, 0x53, 0xBE, 0x1F, 0x56, 0xCA, 0xBF,
  0x46, 0xA8, 0x81, 0xBF, 0x98, 0xC0, 0x55, 0x40, 0xAD, 0xDD,
  0xDC, 0xBF, 0xA5, 0xC4, 0x47, 0xBE, 0x21, 0xA6, 0x6D, 0x40,
  0xD6, 0x0A, 0x35, 0xBE, 0x32, 0xA9, 0x5D, 0x3F, 0x76, 0x28,
  0xF9, 0xBF, 0xFF, 0x80, 0x0E, 0xC0, 0xFA, 0x11, 0x5E, 0xBF,
  0x9D, 0xF7, 0x8D, 0x3F, 0x38, 0x94, 0x50, 0xBE, 0xB8, 0x9B,
  0xEF, 0xBE, 0xAD, 0x35, 0xF6, 0x3F, 0x0E, 0x42, 0xAD, 0xBF,
  0x9D, 0x82, 0x37, 0xBF, 0x3D, 0x36, 0x9F, 0xBF, 0xFC, 0xE2,
  0x9E, 0xBE, 0xDA, 0x56, 0x08, 0xBF, 0x7A, 0x6C, 0x18, 0x3E,
  0xAC, 0xE9, 0x60, 0x3F, 0x68, 0x0B, 0x27, 0xBF, 0x57, 0x36,
  0x97, 0x3F, 0x96, 0x7E, 0x2C, 0xBF, 0x43, 0xF7, 0x85, 0x3F,
  0x67, 0xD2, 0xA8, 0xC0, 0xB1, 0x09, 0xFC, 0xBF, 0x6F, 0x3E,
  0xCB, 0xBD, 0xAD, 0xA4, 0x39, 0xC0, 0x85, 0x6E, 0x35, 0xBC,
  0x15, 0x82, 0x5D, 0x3E, 0xB8, 0x1D, 0xA2, 0xBF, 0x33, 0x9F,
  0x28, 0x40, 0x24, 0x10, 0xBB, 0x3F, 0x89, 0xF6, 0xCA, 0x3F,
  0x70, 0xFC, 0x01, 0xC0, 0xD4, 0xBB, 0x45, 0x40, 0x25, 0xAD,
  0x32, 0xC0, 0x72, 0xE6, 0x0A, 0x3F, 0x40, 0x45, 0xA6, 0x3F,
  0x07, 0x85, 0x3F, 0x40, 0xFF, 0xA1, 0x58, 0x3F, 0x56, 0xA2,
  0x50, 0xC0, 0x24, 0xCA, 0x6C, 0xBF, 0xC6, 0xF9, 0x94, 0xC0,
  0x31, 0x3F, 0x2A, 0xBF, 0xD6, 0x88, 0x46, 0x40, 0x1F, 0x35,
  0x25, 0xC0, 0x8C, 0x38, 0x52, 0xBF, 0x81, 0xB9, 0xB0, 0x3F,
  0xCB, 0x91, 0x92, 0x40, 0x6E, 0x11, 0x95, 0xBF, 0x3F, 0x23,
  0x65, 0x3F, 0xD3, 0x43, 0x04, 0xC0, 0xE7, 0xB0, 0x0A, 0xBF,
  0xC5, 0x3B, 0x23, 0x3F, 0xB3, 0x3D, 0x9B, 0xC0, 0x86, 0x56,
  0xB4, 0x3E, 0x0E, 0xA7, 0xA8, 0xBF, 0x21, 0xAE, 0xB8, 0x3F,
  0x68, 0xC1, 0x0F, 0x3E, 0xBF, 0x08, 0x75, 0xBE, 0x55, 0xB3,
  0xB9, 0x3F, 0x6F, 0x0F, 0x73, 0xBF, 0x3F, 0x14, 0xFA, 0xBF,
  0xD0, 0xA6, 0xEB, 0xBF, 0xF2, 0x22, 0xC6, 0x3E, 0xDD, 0x25,
  0x1D, 0x3F, 0xFD, 0x64, 0x0F, 0xC0, 0x0F, 0x21, 0xA8, 0xBF,
  0x3E, 0x7C, 0x52, 0x3F, 0x58, 0x7F, 0x38, 0x40, 0xDF, 0xCB,
  0xA7, 0x3F, 0xF1, 0x06, 0xC4, 0xBF, 0x9E, 0xAC, 0x75, 0xBF,
  0xEF, 0x01, 0xB2, 0xBF, 0x71, 0x4A, 0x5B, 0x40, 0x85, 0x14,
  0xF4, 0x3E, 0x8C, 0x4A, 0x28, 0x3F, 0xBC, 0x98, 0x44, 0x3F,
  0x19, 0x1D, 0x86, 0xBF, 0x9C, 0x8D, 0xF7, 0xBD, 0x2C, 0x14,
  0x2B, 0x3F, 0x4A, 0xC8, 0x46, 0xBE, 0x63, 0x59, 0x5E, 0x3E,
  0x9E, 0x16, 0xDD, 0x40, 0x68, 0xD4, 0x5F, 0xBF, 0xD0, 0xEF,
  0x96, 0xC0, 0x3A, 0x8E, 0x77, 0x3F, 0xAF, 0x76, 0x4A, 0x3F,
  0xCA, 0xD1, 0x87, 0xBF, 0x3A, 0x8E, 0x00, 0x3E, 0xA4, 0x0E,
  0x14, 0xBF, 0xBD, 0x74, 0xCD, 0xBF, 0xCD, 0xC6, 0x9D, 0xBE,
  0x69, 0x27, 0x02, 0xBF, 0x8A, 0x82, 0xC5, 0x3F, 0x03, 0xAA,
  0xFD, 0x3E, 0x47, 0x38, 0x19, 0x40, 0x0E, 0x56, 0x42, 0xBF,
  0xCC, 0x4E, 0xDC, 0x3E, 0x09, 0xE4, 0xF3, 0xBE, 0x29, 0x2D,
  0xC8, 0x3E, 0xC3, 0x92, 0x37, 0x3F, 0xE7, 0x03, 0x88, 0x3F,
  0x21, 0x13, 0x02, 0xBF, 0x76, 0x3C, 0x49, 0x3E, 0xC6, 0xDF,
  0x13, 0x40, 0x16, 0x71, 0x44, 0xBF, 0x23, 0xDD, 0x4B, 0x3C,
  0xC3, 0xB2, 0xCB, 0x3F, 0x0A, 0xA3, 0x37, 0xC0, 0x2F, 0x92,
  0x82, 0x3F, 0x87, 0x6A, 0x42, 0xBF, 0xB5, 0x2F, 0x16, 0x40,
  0x86, 0xB4, 0x64, 0x3E, 0x7C, 0x42, 0x41, 0xC0, 0x40, 0xF1,
  0xEA, 0xBE, 0xB0, 0xDB, 0x9D, 0x3F, 0x90, 0x80, 0x92, 0x40,
  0xA1, 0x9D, 0x12, 0xBF, 0x98, 0xC1, 0x99, 0xBF, 0x02, 0x30,
  0xB3, 0xBF, 0x9A, 0x68, 0x99, 0xBF, 0x87, 0xE7, 0x58, 0xBE,
  0xCA, 0xB4, 0x8A, 0xBF, 0x8F, 0xB6, 0xA9, 0xBF, 0xA5, 0x20,
  0xA6, 0x3E, 0x2B, 0x61, 0xAB, 0x3F, 0x7D, 0xF4, 0xD6, 0x3E,
  0x2C, 0xAB, 0x2E, 0x3F, 0x55, 0x47, 0x99, 0xBF, 0x7F, 0x46,
  0x34, 0x40, 0xDC, 0xFE, 0x42, 0xC0, 0x58, 0x28, 0x91, 0xBF,
  0x74, 0x8F, 0xBB, 0x3F, 0xE9, 0xDC, 0xFC, 0xBF, 0x5A, 0x87,
  0xAA, 0xBF, 0xC7, 0x2C, 0x36, 0xBF, 0xA8, 0x6C, 0xB6, 0xBF,
  0xEE, 0x9E, 0xF2, 0x3F, 0xCE, 0xB6, 0x0F, 0x3F, 0x06, 0xD8,
  0xF0, 0x3F, 0x90, 0x1A, 0x6D, 0x3F, 0xF7, 0x71, 0x0C, 0xBE,
  0x96, 0xA3, 0x87, 0xBF, 0x33, 0x69, 0xCC, 0xBF, 0x8A, 0xAD,
  0xE4, 0x3F, 0x20, 0x32, 0x8A, 0xBF, 0x3A, 0xAB, 0xC6, 0xBF,
  0x69, 0x7E, 0x8B, 0x40, 0x25, 0x82, 0x13, 0xC0, 0x0E, 0x1B,
  0x04, 0x3F, 0x90, 0x87, 0x39, 0x3F, 0xA9, 0x57, 0x26, 0xC0,
  0x08, 0xCB, 0xA2, 0xBE, 0x47, 0xDC, 0x0E, 0x3D, 0xA8, 0x8A,
  0x09, 0xC0, 0xB3, 0x58, 0x81, 0xBE, 0xE4, 0x00, 0x4B, 0x40,
  0x40, 0x2E, 0xE8, 0xBD, 0xAB, 0x1E, 0xE3, 0xBF, 0xD3, 0x2D,
  0x98, 0x3F, 0xA8, 0x65, 0x02, 0xC0, 0xC1, 0x5F, 0xEF, 0xBF,
  0x30, 0x15, 0x50, 0x3D, 0xDA, 0xDD, 0x01, 0xC0, 0x8E, 0x00,
  0xD5, 0x3F, 0xFF, 0x5C, 0x61, 0x3E, 0x5F, 0x5A, 0xC0, 0x3F,
  0x7D, 0x6A, 0x91, 0xBF, 0x62, 0xFC, 0xC6, 0x3F, 0xA5, 0x6C,
  0x00, 0xBF, 0xC6, 0x50, 0xEE, 0x3E, 0x51, 0xD9, 0xEF, 0xBF,
  0x99, 0xF5, 0x49, 0xBF, 0x17, 0x0E, 0xE7, 0xBF, 0x25, 0x7B,
  0x04, 0x3F, 0x1D, 0x13, 0x41, 0x3F, 0x79, 0x35, 0x73, 0x3E,
  0xE8, 0x20, 0xEF, 0xBE, 0x4C, 0xD1, 0x98, 0x3F, 0x91, 0xFE,
  0x96, 0xC0, 0xE3, 0xA8, 0xB3, 0x3E, 0x4A, 0xE8, 0xF7, 0xBF,
  0x74, 0x5A, 0x96, 0xBF, 0x7D, 0x10, 0x53, 0x3E, 0x77, 0x0D,
  0x8A, 0x3F, 0x07, 0x75, 0x86, 0x3F, 0x25, 0xB0, 0x3F, 0x3F,
  0x4C, 0x18, 0xCE, 0x3E, 0x56, 0x11, 0x91, 0xBC, 0xBB, 0xB2,
  0x57, 0xBF, 0xBE, 0x1F, 0x85, 0xBF, 0x20, 0x2F, 0x3F, 0x3F,
  0x84, 0x6E, 0x3B, 0xC0, 0x3C, 0xC3, 0x75, 0xBF, 0x12, 0xDB,
  0x07, 0xC0, 0x20, 0x51, 0xFD, 0xBE, 0x3C, 0xBB, 0xC8, 0x3F,
  0xDB, 0xE3, 0x9A, 0x40, 0x4A, 0x80, 0xAD, 0xBF, 0x4F, 0x04,
  0xC5, 0xBF, 0xF8, 0x6E, 0x12, 0x40, 0x77, 0x7D, 0x09, 0xBF,
  0x41, 0xCD, 0x6E, 0xBF, 0x2D, 0xF3, 0x26, 0x3F, 0xE4, 0x01,
  0x00, 0xBF, 0x1E, 0xCA, 0x55, 0x3F, 0x62, 0xAC, 0x1E, 0x40,
  0x70, 0xF3, 0x19, 0xBF, 0x38, 0x52, 0x12, 0x3F, 0xB1, 0x51,
  0x58, 0x40, 0x2B, 0x1F, 0x71, 0xBE, 0xDB, 0x5B, 0x35, 0xC0,
  0xFB, 0xA8, 0x5F, 0xBF, 0x7A, 0xB0, 0x1C, 0xBE, 0x1C, 0x29,
  0x90, 0x3F, 0xF9, 0xE1, 0x78, 0x3E, 0xF8, 0x62, 0x0F, 0xBF,
  0xA2, 0x9B, 0xC7, 0x3F, 0x45, 0x10, 0x96, 0xBF, 0x00, 0x88,
  0xE9, 0xBF, 0x68, 0x1B, 0xDF, 0x3E, 0xBB, 0x3B, 0xCA, 0x3E,
  0x28, 0xBB, 0x2B, 0xC0, 0x02, 0xF6, 0xEE, 0x3F, 0x9C, 0x49,
  0xE5, 0x3F, 0xA1, 0xD7, 0xA5, 0x3F, 0x4B, 0x43, 0x99, 0xC0,
  0x45, 0x1F, 0xC9, 0x3F, 0xAD, 0x8D, 0xB4, 0xBF, 0x2F, 0xC2,
  0x82, 0x40, 0x55, 0x42, 0xB1, 0x3F, 0xE6, 0x1E, 0x2B, 0x40,
  0x60, 0x86, 0x30, 0x3F, 0x2B, 0x58, 0x38, 0xBB, 0x02, 0xCE,
  0xE2, 0x3F, 0x44, 0xF8, 0x05, 0xC0, 0x9D, 0x4D, 0x69, 0x3D,
  0x03, 0x1C, 0x6F, 0xC0, 0x8D, 0xB1, 0x93, 0xBF, 0x15, 0xEB,
  0xB3, 0xBE, 0xC2, 0xBC, 0x99, 0xBE, 0xB6, 0xBF, 0x9F, 0xBF,
  0x40, 0x5D, 0x13, 0x3F, 0xD9, 0x72, 0x14, 0x3F, 0xB8, 0xC5,
  0x21, 0x40, 0xB8, 0x50, 0x8F, 0xBF, 0x24, 0xAA, 0x82, 0x3E,
  0x50, 0xF3, 0x9E, 0xBE, 0x1F, 0xB3, 0x2E, 0xC0, 0xB5, 0x73,
  0xB6, 0xBE, 0xE1, 0x7C, 0xAE, 0xBF, 0xC3, 0x8E, 0x9C, 0xBF,
  0x46, 0x46, 0xEC, 0xBF, 0x3A, 0x77, 0x31, 0xBF, 0x65, 0xC4,
  0x3E, 0x3F, 0xCD, 0x58, 0xE5, 0x3E, 0x0A, 0x30, 0x7C, 0xC0,
  0xE2, 0x38, 0x21, 0x40, 0x39, 0xC0, 0xB4, 0xBE, 0xFC, 0x29,
  0xC4, 0x3F, 0x08, 0x30, 0x8D, 0xC0, 0x5E, 0x09, 0xF8, 0xBF,
  0x51, 0xCF, 0x77, 0x3F, 0xD3, 0xAE, 0x2A, 0xBF, 0x7D, 0xF2,
  0xE8, 0x3F, 0x1E, 0xFA, 0xE4, 0xBF, 0x55, 0x2A, 0x34, 0xBF,
  0x8D, 0x5B, 0x21, 0xC0, 0x92, 0x06, 0x72, 0x3D, 0xF9, 0xE4,
  0x3A, 0x40, 0x42, 0xAD, 0x8B, 0x3F, 0xA4, 0xF5, 0xCC, 0xBE,
  0xFE, 0xC3, 0x45, 0xC0, 0x88, 0x47, 0x94, 0x3F, 0xA3, 0x95,
  0x58, 0x3E, 0xF5, 0x04, 0x69, 0x3E, 0x98, 0x4C, 0xF1, 0x3F,
  0x6C, 0x37, 0xCA, 0xBF, 0xC6, 0xE7, 0x77, 0xC0, 0xA2, 0x83,
  0x8A, 0x3F, 0x4F, 0xBD, 0x06, 0x40, 0x61, 0x9E, 0x3E, 0x3D,
  0xF9, 0x27, 0x67, 0x3F, 0x92, 0x16, 0x55, 0xBE, 0xF5, 0x8E,
  0x21, 0x40, 0xDB, 0x10, 0x03, 0xBD, 0xB3, 0xB7, 0xB8, 0xBF,
  0xEF, 0x4F, 0x8B, 0xBF, 0xFD, 0x1A, 0xC9, 0x3F, 0x10, 0xE3,
  0x92, 0x3F, 0x1D, 0x67, 0x7B, 0x3F, 0x27, 0x57, 0xB7, 0x3F,
  0xC3, 0xC0, 0x01, 0xBF, 0x34, 0x15, 0x73, 0xBE, 0x66, 0x4E,
  0xAE, 0xBF, 0xA7, 0xB1, 0x9F, 0x3D, 0x98, 0xB1, 0x95, 0x3E,
  0xAB, 0x04, 0x0F, 0x40, 0x21, 0xEE, 0xED, 0xBF, 0x9B, 0x5B,
  0xA2, 0x40, 0x04, 0xE8, 0x88, 0x3F, 0x76, 0x1C, 0x79, 0xBF,
  0x29, 0x85, 0x91, 0x3F, 0x0D, 0xD0, 0x2B, 0xC0, 0x8F, 0xC7,
  0x47, 0x3D, 0x09, 0xB6, 0x62, 0xC0, 0x34, 0x20, 0xA9, 0xBF,
  0x59, 0x33, 0x52, 0x3D, 0xDB, 0x5E, 0x53, 0x3E, 0x42, 0x7E,
  0xB5, 0x3F, 0x11, 0x54, 0xB3, 0xBF, 0xA2, 0x36, 0xAC, 0xBE,
  0x70, 0x62, 0x29, 0x40, 0x45, 0x48, 0x63, 0xBE, 0x3A, 0x49,
  0x37, 0x3E, 0xDE, 0x01, 0x54, 0x3F, 0x23, 0xF2, 0xA2, 0xBF,
  0x9A, 0x41, 0x1A, 0x40, 0x21, 0x13, 0xB4, 0x3D, 0xBD, 0xF7,
  0x8D, 0xBF, 0x40, 0xC1, 0x06, 0xC0, 0xFD, 0xB4, 0x2A, 0x3E,
  0x4E, 0xE4, 0x8F, 0xBE, 0xCE, 0x1C, 0x08, 0x3D, 0x3A, 0x2B,
  0xBC, 0xBD, 0xF9, 0x83, 0x00, 0x3F, 0x40, 0xA0, 0xAD, 0xBF,
  0x44, 0x6B, 0x6B, 0x3F, 0xB7, 0x24, 0x11, 0xC0, 0x8B, 0x64,
  0xA8, 0x3F, 0xD1, 0xC0, 0x24, 0xBF, 0x76, 0xBF, 0x07, 0xBF,
  0x90, 0xBA, 0x41, 0xBF, 0x29, 0x2E, 0x26, 0xBE, 0xF3, 0xE1,
  0x29, 0x40, 0x41, 0x7A, 0x31, 0x3E, 0x2C, 0x2F, 0xDF, 0xBF,
  0x24, 0x2C, 0x11, 0x40, 0xD8, 0x2E, 0x0F, 0xC0, 0x24, 0x43,
  0x94, 0x3F, 0x34, 0xC6, 0x47, 0xBF, 0x75, 0xA0, 0xBE, 0x3F,
  0x63, 0x0A, 0x5A, 0xC0, 0x6C, 0x6B, 0x06, 0x40, 0x03, 0xE4,
  0x10, 0xBF, 0xD4, 0x0C, 0x9C, 0x3F, 0x97, 0x31, 0x87, 0x3F,
  0x9F, 0xFD, 0xC6, 0xBF, 0xFE, 0x78, 0x87, 0xBF, 0x2D, 0x31,
  0x94, 0x3F, 0x03, 0x1B, 0x23, 0xBF, 0x56, 0x49, 0x6F, 0xC0,
  0xE3, 0x1E, 0x8C, 0x3E, 0x21, 0x31, 0xCE, 0x3C, 0x95, 0x95,
  0xED, 0xBF, 0x93, 0xFF, 0x9E, 0x3D, 0x13, 0xB4, 0xBB, 0xBB,
  0x59, 0x97, 0x2C, 0xBE, 0x30, 0x2D, 0xAF, 0x40, 0x2F, 0xC7,
  0x5D, 0xC0, 0xFE, 0x6F, 0x35, 0x3F, 0x0B, 0x26, 0x3B, 0xC0,
  0x4F, 0x6F, 0x8C, 0xBF, 0x1F, 0xEC, 0xC1, 0xBE, 0x56, 0xCB,
  0x32, 0xBF, 0xBC, 0xE3, 0x72, 0x3F, 0x17, 0x13, 0xD2, 0x3E,
  0x5F, 0x26, 0xF9, 0xBF, 0x52, 0x5C, 0xA8, 0xBF, 0x3A, 0xD2,
  0x7F, 0x3F, 0x30, 0xA2, 0x98, 0xBF, 0xD0, 0xF6, 0x05, 0xC0,
  0xDE, 0xB1, 0xB0, 0xBE, 0x94, 0xE2, 0xED, 0x3D, 0xE2, 0xFF,
  0x8B, 0x3E, 0x72, 0xAA, 0xE2, 0x3F, 0x12, 0x1A, 0x22, 0xC0,
  0x8E, 0x1A, 0x3B, 0x3F, 0xF2, 0xE8, 0x1E, 0xBF, 0x80, 0x77,
  0x5A, 0x3F, 0x59, 0x7A, 0x01, 0xC0, 0xD3, 0xFD, 0x0B, 0x3F,
  0xB4, 0x00, 0x58, 0xC0, 0xA1, 0x7F, 0x93, 0xBE, 0x46, 0x0E,
  0xAF, 0x3F, 0x94, 0x22, 0xA8, 0xBF, 0xE8, 0x98, 0xC5, 0xBF,
  0x81, 0x35, 0x8F, 0x3F, 0xEA, 0x3D, 0x65, 0x40, 0x3F, 0xD1,
  0x1B, 0xBF, 0x41, 0x92, 0xD4, 0xBE, 0x67, 0x2D, 0x57, 0x3F,
  0x82, 0xED, 0xAD, 0xBF, 0x72, 0x9D, 0xCB, 0x3F, 0xBF, 0x51,
  0xB4, 0xBF, 0xFD, 0x61, 0x01, 0x3F, 0xBD, 0xD1, 0x23, 0x3A,
  0xEF, 0x38, 0x1D, 0x3F, 0xDD, 0x99, 0xF2, 0x3F, 0x8E, 0x58,
  0x23, 0xBF, 0xC5, 0x11, 0x0A, 0xC0, 0x9D, 0x95, 0x87, 0x40,
  0x00, 0x5C, 0x02, 0xC0, 0x2F, 0x90, 0x70, 0xBF, 0x6A, 0x0E,
  0xDC, 0xBE, 0x63, 0x86, 0xD1, 0x3E, 0x03, 0x87, 0x6B, 0x3F,
  0x9B, 0xDF, 0xEA, 0x3D, 0xFA, 0x26, 0x60, 0x40, 0x91, 0x98,
  0x5D, 0x3D, 0x2F, 0x93, 0xA0, 0x3F, 0x35, 0x5C, 0x0E, 0xBF,
  0xEA, 0xAC, 0x65, 0xC0, 0x91, 0xB9, 0x99, 0xBF, 0x06, 0xAA,
  0xBE, 0x3F, 0xE5, 0xF7, 0xB0, 0x3E, 0x91, 0x60, 0x8B, 0x3F,
  0x81, 0x38, 0x78, 0x3F, 0xD9, 0x8F, 0x07, 0xBF, 0xF2, 0xF0,
  0xFF, 0xFF, 0x04, 0x00, 0x00, 0x00, 0x60, 0x03, 0x00, 0x00,
  0xDB, 0x31, 0x06, 0x3E, 0x70, 0xB8, 0xE0, 0xBD, 0x68, 0x57,
  0xF1, 0xBE, 0x6B, 0x49, 0xDF, 0xBE, 0x19, 0x07, 0xC7, 0x3E,
  0x74, 0xB2, 0x10, 0x3E, 0xA6, 0xFB, 0xB7, 0x3E, 0x4F, 0x91,
  0x86, 0xBE, 0xDA, 0x1A, 0xF5, 0xBC, 0x69, 0x6E, 0x1D, 0xBE,
  0xF2, 0x2C, 0x67, 0xBE, 0x19, 0x3A, 0x40, 0xBE, 0x9E, 0x9C,
  0xAE, 0x3E, 0x29, 0x19, 0x0D, 0xBE, 0xAE, 0x4F, 0x42, 0x3E,
  0xD1, 0xFE, 0x5B, 0x3E, 0x05, 0x10, 0x61, 0xBE, 0x97, 0x40,
  0x62, 0xBE, 0x63, 0x5F, 0xF4, 0xBD, 0xFB, 0x5D, 0x74, 0xBD,
  0xC4, 0xD5, 0x60, 0x3E, 0x79, 0x0D, 0xC8, 0xBD, 0xAB, 0xC3,
  0x5C, 0x3E, 0xC3, 0x56, 0x74, 0x3E, 0x52, 0x54, 0x7E, 0xBD,
  0xD8, 0xD7, 0x5D, 0xBE, 0xF0, 0x41, 0x23, 0x3E, 0x71, 0xE5,
  0xFB, 0xBD, 0xF6, 0xE1, 0xAF, 0xBD, 0x28, 0xCB, 0x68, 0x3B,
  0x38, 0x25, 0x62, 0xBE, 0x45, 0xA2, 0x55, 0xBD, 0x96, 0x8B,
  0x1E, 0xBE, 0xDB, 0xE0, 0x3B, 0xBF, 0x48, 0x51, 0x39, 0xBE,
  0xCA, 0xF2, 0x07, 0xBD, 0xA8, 0xA0, 0xBF, 0xBE, 0x98, 0xAB,
  0x4F, 0x3B, 0x6D, 0xFB, 0xB5, 0xBE, 0xA9, 0xB3, 0xC5, 0xBD,
  0xFB, 0x90, 0x2D, 0xBD, 0xD1, 0x2A, 0xDB, 0x3D, 0x82, 0x43,
  0xB6, 0xBE, 0x88, 0xFA, 0x8D, 0xBE, 0x93, 0xD0, 0x63, 0x3D,
  0xF7, 0x52, 0xD3, 0xBE, 0x60, 0x2B, 0xF3, 0xBC, 0x6A, 0xB7,
  0xA3, 0x3D, 0x04, 0xC3, 0x07, 0xBF, 0x1C, 0x87, 0xBF, 0xBD,
  0x3C, 0x30, 0x16, 0x3E, 0x80, 0x14, 0xFE, 0xBD, 0xC1, 0x94,
  0x9E, 0xBD, 0xA8, 0x53, 0xED, 0x3D, 0xBB, 0x56, 0x12, 0x3E,
  0xE5, 0xEE, 0x1B, 0xBE, 0xCA, 0xD6, 0x53, 0xBC, 0x1C, 0xC9,
  0x8D, 0xBE, 0x69, 0xA1, 0x20, 0x3C, 0x0B, 0x45, 0x24, 0x3C,
  0x8F, 0x91, 0x64, 0x3D, 0xEA, 0x3D, 0x02, 0xBE, 0x89, 0x3C,
  0x02, 0x3E, 0x16, 0x49, 0x34, 0xBD, 0x06, 0x6F, 0x66, 0xBC,
  0xB1, 0x96, 0x37, 0xBD, 0xA2, 0xDC, 0xE6, 0xBD, 0x8A, 0x64,
  0xE9, 0x3D, 0x5B, 0x4A, 0x3A, 0x3E, 0x34, 0x71, 0x07, 0x3E,
  0x73, 0xB6, 0x5B, 0x3C, 0x9C, 0xED, 0x19, 0x3D, 0xA2, 0xDF,
  0xD7, 0xBD, 0xE4, 0xD0, 0x69, 0xBA, 0x73, 0xE7, 0x73, 0x3E,
  0xBB, 0xE8, 0x1B, 0xBE, 0x90, 0x7A, 0x0B, 0x3D, 0xFA, 0xC9,
  0x85, 0xBB, 0x6E, 0xE4, 0x9A, 0xBD, 0x1D, 0x0F, 0x57, 0xBE,
  0x5E, 0x64, 0x37, 0x3E, 0xB7, 0xFA, 0x48, 0xBE, 0x6D, 0x37,
  0x0B, 0xBE, 0x77, 0xC9, 0x47, 0x3D, 0x7E, 0xC2, 0xB4, 0xBD,
  0x3E, 0x42, 0x6A, 0xBE, 0x91, 0x59, 0x0D, 0x3E, 0xB5, 0x18,
  0x95, 0xBE, 0xD2, 0x5B, 0xEE, 0xBD, 0x7F, 0xBF, 0x85, 0x3E,
  0xA1, 0xC0, 0x17, 0xBF, 0xB5, 0x57, 0xDD, 0xBD, 0x00, 0x85,
  0xFB, 0x3D, 0x09, 0x10, 0xAB, 0x3E, 0xF7, 0xB6, 0xDF, 0x3E,
  0xD1, 0xCB, 0xC8, 0x3E, 0x5C, 0xF0, 0xBF, 0xBC, 0x94, 0xC7,
  0xE0, 0xBE, 0x8F, 0xFB, 0xB3, 0xBD, 0x0A, 0x44, 0xA4, 0x3D,
  0xDA, 0xBE, 0xD3, 0x3D, 0xD4, 0x19, 0xE6, 0xBC, 0xA8, 0x0A,
  0x4A, 0x3F, 0x50, 0xEA, 0x8E, 0xBE, 0x52, 0xED, 0x7E, 0xBE,
  0xD2, 0xB8, 0x55, 0x3C, 0x8A, 0x8B, 0x82, 0xBF, 0xEB, 0x0E,
  0xD9, 0xBE, 0xC7, 0x3C, 0xB6, 0xBD, 0x09, 0x5A, 0x37, 0xBE,
  0x00, 0xB5, 0x14, 0x3E, 0x0C, 0x11, 0x88, 0x3E, 0x10, 0x52,
  0x07, 0x3C, 0xCF, 0x1C, 0xE5, 0xBC, 0x69, 0x86, 0xE4, 0xBD,
  0xFE, 0xD3, 0xC5, 0xBE, 0x30, 0x7C, 0xE8, 0xBD, 0x6E, 0x05,
  0x83, 0xBD, 0xA0, 0xCD, 0x81, 0x3D, 0x9A, 0x97, 0xD6, 0xBE,
  0xBD, 0x2E, 0x00, 0xBF, 0x70, 0x96, 0x37, 0xBE, 0x7A, 0xE1,
  0xD5, 0xBD, 0x5A, 0x1A, 0x1B, 0x3E, 0x0E, 0x1E, 0x98, 0xBD,
  0x01, 0x55, 0x34, 0xBF, 0x8F, 0x72, 0x01, 0xBE, 0x98, 0xD3,
  0x0C, 0xBE, 0xBF, 0xB2, 0x53, 0x3D, 0x6A, 0x1F, 0x0E, 0x3E,
  0x65, 0x03, 0xBD, 0x3D, 0x1F, 0xFD, 0xCA, 0x3C, 0xD4, 0xBB,
  0x8E, 0xBE, 0x8B, 0x66, 0x74, 0xBE, 0xD4, 0x40, 0x0A, 0xBC,
  0x3A, 0xFB, 0x4C, 0xBD, 0x53, 0x7D, 0x2D, 0x3B, 0x16, 0xA1,
  0x5B, 0x3C, 0x84, 0x96, 0x33, 0xBF, 0xDF, 0x6F, 0x3E, 0xBE,
  0x65, 0x29, 0x36, 0x3E, 0xC8, 0x97, 0x6F, 0xBD, 0x60, 0x66,
  0xF0, 0x3D, 0xFD, 0xAA, 0xAB, 0xBD, 0x55, 0x31, 0xCB, 0x3C,
  0x52, 0x67, 0xCE, 0x3C, 0xF4, 0xB5, 0x3D, 0xBC, 0x3E, 0x3A,
  0x7A, 0x3E, 0x3E, 0x04, 0x92, 0xBD, 0x29, 0x3C, 0x68, 0xBC,
  0x3C, 0x20, 0xBA, 0x3D, 0x8F, 0x1C, 0x59, 0xBE, 0xC0, 0xBC,
  0xAB, 0xBE, 0xDA, 0x94, 0xA9, 0x3C, 0xF5, 0x20, 0x25, 0xBE,
  0x7A, 0x1C, 0x17, 0x3E, 0xF2, 0xA4, 0xCB, 0xBE, 0x9C, 0xDD,
  0x23, 0xBE, 0x14, 0x46, 0x9E, 0xBE, 0x9D, 0x0A, 0xB2, 0xBD,
  0x0D, 0x3B, 0x26, 0xBE, 0xE2, 0x94, 0xAA, 0x3E, 0xDE, 0xB3,
  0xBF, 0x3E, 0x3B, 0xB4, 0xA7, 0xBE, 0x01, 0x65, 0x7A, 0xBA,
  0x64, 0x98, 0x0A, 0x3D, 0x2F, 0x92, 0x00, 0xBF, 0x96, 0x2C,
  0x76, 0xBF, 0x5C, 0x74, 0xCA, 0x3E, 0x45, 0xAA, 0x04, 0xBE,
  0xB3, 0xE1, 0xFC, 0x3B, 0x8D, 0xD3, 0x4E, 0xBD, 0x0D, 0x32,
  0xDB, 0xBD, 0x54, 0xCE, 0xBB, 0x3D, 0xA1, 0xFF, 0x22, 0xBF,
  0x06, 0x28, 0xCC, 0xBC, 0x2A, 0xF7, 0x49, 0x3D, 0x27, 0xF5,
  0x34, 0x3E, 0x4A, 0xA6, 0x35, 0x3E, 0x1D, 0x03, 0x92, 0x3E,
  0xEF, 0xEB, 0x31, 0xBD, 0xB1, 0x04, 0xEA, 0xBD, 0x2E, 0xC0,
  0x37, 0x3E, 0x9F, 0xDF, 0x78, 0x3D, 0xD6, 0xDB, 0xD2, 0xBD,
  0x8B, 0xCF, 0xB3, 0x3C, 0x90, 0xD8, 0x80, 0xBC, 0xDF, 0xB8,
  0xD5, 0xBD, 0x3B, 0xEF, 0xAE, 0x3D, 0xCB, 0xE9, 0xE1, 0x3D,
  0x0B, 0x4D, 0xC5, 0xBD, 0x93, 0xB6, 0x96, 0xBD, 0xE8, 0xF9,
  0x10, 0x3D, 0x03, 0x95, 0x0D, 0xBE, 0x58, 0x11, 0xB5, 0xBD,
  0x12, 0xFD, 0x0B, 0x3E, 0x1C, 0x71, 0x31, 0xBD, 0x8F, 0x25,
  0xEC, 0xBD, 0x6E, 0x99, 0x41, 0xBE, 0x90, 0x5C, 0x50, 0xBE,
  0x0C, 0x2D, 0xB4, 0xBE, 0x2A, 0x93, 0x32, 0xBF, 0x70, 0xBC,
  0xD0, 0x3C, 0x69, 0x69, 0x8B, 0xBE, 0x0F, 0x65, 0xC6, 0xBD,
  0x50, 0xDD, 0x5C, 0x3D, 0xAD, 0xF5, 0x1E, 0xBE, 0xB1, 0xB4,
  0x8B, 0xBE, 0x75, 0xC4, 0x0C, 0x3E, 0xEA, 0xCA, 0xFB, 0xBD,
  0x83, 0x7B, 0x89, 0xBE, 0x7B, 0x48, 0xF0, 0xBD, 0x97, 0xBC,
  0xE1, 0xBE, 0xC2, 0x13, 0x87, 0x3D, 0x50, 0xAF, 0xD4, 0x3D,
  0x17, 0xB1, 0x15, 0x3E, 0x5E, 0xF4, 0xFF, 0xFF, 0x04, 0x00,
  0x00, 0x00, 0xB0, 0x01, 0x00, 0x00, 0x56, 0x2B, 0xE2, 0xBE,
  0x2B, 0xCE, 0x8C, 0xBD, 0xA9, 0x85, 0xE4, 0x3B, 0xAF, 0xBD,
  0xCE, 0x3D, 0xA1, 0x02, 0x9D, 0xBD, 0xA3, 0xB6, 0x3E, 0xBE,
  0x80, 0x28, 0xFC, 0xBE, 0xAF, 0x3F, 0xB0, 0x3D, 0x96, 0xAC,
  0xD8, 0x3D, 0x5F, 0xBD, 0x07, 0x3E, 0x3D, 0x36, 0xAF, 0xBD,
  0xB5, 0x53, 0xBC, 0xBE, 0x2F, 0xF9, 0xCA, 0xBE, 0xCA, 0x4F,
  0xEB, 0x3D, 0xEE, 0xFD, 0xFB, 0x3C, 0x22, 0xFE, 0x15, 0x3E,
  0xFE, 0x40, 0xDC, 0xBC, 0x12, 0xCA, 0x9F, 0xBE, 0x8F, 0xA0,
  0xB1, 0xBD, 0x21, 0xCD, 0x88, 0x3B, 0x52, 0x42, 0x15, 0x3E,
  0xF9, 0x18, 0x36, 0x3C, 0x8A, 0x18, 0x64, 0x3D, 0xEC, 0x19,
  0xEF, 0x3D, 0xC5, 0xAA, 0x53, 0xBD, 0xFF, 0xEB, 0xEB, 0x3C,
  0xA6, 0x1E, 0x21, 0x3E, 0xCA, 0xE5, 0xB7, 0x3D, 0x8C, 0x96,
  0xA7, 0x3D, 0x9E, 0x65, 0xC0, 0x3D, 0x7A, 0x1E, 0xB7, 0xBD,
  0x7F, 0x38, 0xAC, 0x3D, 0xF7, 0xC1, 0x6B, 0x3D, 0x03, 0xBF,
  0xA9, 0x3D, 0x35, 0xB7, 0xE1, 0x3C, 0x6D, 0x35, 0x07, 0xBD,
  0x45, 0xAB, 0x8E, 0xBD, 0xC1, 0x73, 0x1B, 0xBE, 0xA4, 0x69,
  0x6F, 0xBE, 0x8A, 0x6A, 0x93, 0x3D, 0xBD, 0xEB, 0x27, 0x3E,
  0xF2, 0x7A, 0xD6, 0x3C, 0x29, 0x46, 0xC9, 0xBC, 0x03, 0x79,
  0x28, 0xBE, 0x87, 0x9A, 0xA6, 0xBE, 0xFF, 0xBF, 0x88, 0x3E,
  0xD2, 0xE8, 0x0B, 0x3F, 0x47, 0x2E, 0xD3, 0xBA, 0xD0, 0x00,
  0x42, 0xBD, 0x3C, 0xFC, 0xA5, 0xBD, 0x00, 0xD6, 0x2A, 0xBE,
  0xFA, 0xFF, 0xCE, 0x3D, 0x77, 0x63, 0x44, 0x3E, 0x60, 0x82,
  0x43, 0x3B, 0x7F, 0xE6, 0x90, 0xBD, 0xEA, 0x3F, 0xC7, 0xBE,
  0x4C, 0x93, 0x3E, 0x3E, 0xA5, 0xC1, 0x38, 0x3E, 0x6D, 0x57,
  0x55, 0x3D, 0x00, 0xE7, 0xB1, 0xBD, 0x4A, 0x66, 0xAF, 0xBC,
  0x2D, 0x96, 0xAC, 0xBD, 0xB6, 0xDE, 0x7A, 0x3E, 0x0D, 0xA6,
  0x34, 0x3E, 0x0A, 0x60, 0xE4, 0x3D, 0x92, 0xAC, 0x41, 0xBC,
  0x47, 0x04, 0x04, 0xBD, 0x2D, 0x8B, 0x2B, 0xBE, 0xE0, 0x63,
  0x3C, 0x3E, 0x86, 0x5C, 0x15, 0x3E, 0x22, 0x4B, 0x29, 0x3C,
  0xB3, 0x73, 0xC4, 0xBC, 0xA2, 0x45, 0x41, 0x3D, 0x9A, 0xE2,
  0xF1, 0xBC, 0x80, 0x41, 0x35, 0x3C, 0x24, 0xB0, 0x0F, 0x3D,
  0x36, 0x11, 0xB1, 0x3C, 0xF9, 0xF9, 0x07, 0x3E, 0x26, 0x85,
  0x19, 0x3E, 0xB5, 0x17, 0xDE, 0xBD, 0x4A, 0xB1, 0x74, 0x3B,
  0x0F, 0xE9, 0x15, 0x3C, 0x26, 0xDE, 0x59, 0x3D, 0xE4, 0x23,
  0x3A, 0xBD, 0x86, 0x9D, 0x4D, 0x3E, 0x2E, 0x70, 0x28, 0x3D,
  0x43, 0x16, 0x74, 0x3D, 0x88, 0x17, 0xC5, 0xBC, 0x85, 0xD4,
  0x68, 0x3C, 0x41, 0x75, 0x2C, 0x3D, 0xC7, 0xD2, 0xA7, 0xBD,
  0xF6, 0xC4, 0x36, 0xBE, 0x9E, 0x02, 0x4A, 0x3C, 0xAC, 0x5B,
  0xF1, 0x3D, 0x27, 0xE1, 0xE2, 0xBC, 0xBF, 0x8C, 0x0B, 0x3E,
  0xE2, 0x12, 0x90, 0xBD, 0x6E, 0x7A, 0x03, 0xBF, 0x2F, 0x6D,
  0xB3, 0x3B, 0xE1, 0xC9, 0x5C, 0x3E, 0xB0, 0x60, 0xD8, 0xBD,
  0xCB, 0xD2, 0x29, 0x3F, 0xAA, 0x35, 0x8E, 0xBD, 0xB7, 0xE3,
  0x8C, 0xBE, 0x84, 0xBA, 0x19, 0xBD, 0xD7, 0x02, 0x50, 0x3E,
  0x71, 0xBB, 0x58, 0xBE, 0x70, 0xC6, 0x03, 0x3E, 0x1A, 0xF6,
  0xFF, 0xFF, 0x04, 0x00, 0x00, 0x00, 0x80, 0x07, 0x00, 0x00,
  0xCC, 0x14, 0x85, 0xBF, 0xF3, 0x1F, 0x60, 0x40, 0x4D, 0x17,
  0x89, 0xC0, 0xBF, 0xDD, 0xCD, 0x3E, 0x01, 0xF0, 0x47, 0x40,
  0x46, 0x5B, 0x9A, 0xC0, 0xFF, 0x9C, 0x36, 0x40, 0xF3, 0xEC,
  0x5B, 0x3E, 0x31, 0x24, 0x89, 0xC0, 0x67, 0xC7, 0x20, 0x3E,
  0x3B, 0xDD, 0x03, 0x40, 0xD3, 0x12, 0xDF, 0xBF, 0xDF, 0xC2,
  0xB0, 0xBE, 0x9B, 0x88, 0xD0, 0xBE, 0xFE, 0x62, 0xBB, 0x3E,
  0xF3, 0x50, 0x32, 0x40, 0x18, 0x42, 0x2A, 0xC0, 0x9D, 0x83,
  0xEA, 0xBF, 0x27, 0x1F, 0x7C, 0x40, 0xBF, 0x35, 0x44, 0xC0,
  0x4C, 0x4B, 0xEE, 0xBF, 0x7D, 0x1F, 0x3E, 0x40, 0xF3, 0x7D,
  0x26, 0xC0, 0x7B, 0x5E, 0xAE, 0x3E, 0xE1, 0xE2, 0xF3, 0x3F,
  0xDC, 0x5A, 0x00, 0x3F, 0xD5, 0x87, 0xD1, 0xBF, 0xA7, 0xF4,
  0x8B, 0x3E, 0x89, 0xE7, 0x28, 0x3F, 0x61, 0x90, 0x9C, 0xBD,
  0xC8, 0xFE, 0x10, 0xBF, 0x9E, 0xC4, 0x13, 0x3F, 0x48, 0xAE,
  0xCB, 0x3E, 0xF6, 0x3B, 0xDE, 0xBF, 0x86, 0xA0, 0x92, 0x40,
  0x98, 0x63, 0x08, 0xC0, 0xE5, 0x9E, 0x49, 0xBF, 0x1D, 0x82,
  0x86, 0x40, 0xB9, 0xC8, 0xC7, 0xBF, 0x8D, 0xC8, 0x93, 0x3F,
  0xC4, 0xAC, 0x97, 0x3F, 0x9F, 0xBA, 0xB0, 0xBE, 0xFC, 0x56,
  0x84, 0xBC, 0x73, 0x65, 0x1D, 0x3E, 0x68, 0x4D, 0x86, 0x3E,
  0x6D, 0x4D, 0x89, 0x3F, 0x48, 0x26, 0xD5, 0x3F, 0x77, 0x81,
  0x07, 0xC0, 0xD8, 0xFF, 0xF0, 0x3F, 0x5E, 0x08, 0xE1, 0x3F,
  0xD8, 0x8D, 0x68, 0xC0, 0x0D, 0xA2, 0x9C, 0x40, 0xC7, 0x4C,
  0x3C, 0xBF, 0x6B, 0xDE, 0x44, 0xC0, 0x75, 0xCF, 0x8C, 0x40,
  0xC2, 0x05, 0x4B, 0xC0, 0x05, 0x40, 0x3C, 0x40, 0xC6, 0x95,
  0xFA, 0x3C, 0x81, 0x80, 0x09, 0xC0, 0x96, 0x21, 0x00, 0x40,
  0x3A, 0xE2, 0x20, 0xC0, 0x7D, 0xE2, 0xA9, 0x3F, 0x31, 0x28,
  0xD7, 0xBF, 0xFD, 0xEE, 0x15, 0xC0, 0xF1, 0x9C, 0xD7, 0x3F,
  0xD4, 0xB1, 0x9E, 0xBF, 0xC9, 0x54, 0xAA, 0xBF, 0x0A, 0x35,
  0x2A, 0x3F, 0x77, 0x34, 0xA9, 0xBF, 0x37, 0xE2, 0x9A, 0xBE,
  0x69, 0x68, 0x9B, 0xBF, 0x8C, 0x06, 0xBB, 0x3F, 0x07, 0x4F,
  0x57, 0xC0, 0xB1, 0x5C, 0x46, 0x3D, 0xC3, 0x26, 0x61, 0x3F,
  0xB9, 0xBE, 0xDB, 0xBF, 0x26, 0x8F, 0x23, 0x40, 0x96, 0x6C,
  0xE2, 0xBF, 0x07, 0x35, 0xF9, 0x3E, 0xF5, 0xF4, 0xB7, 0x3E,
  0xA4, 0x7C, 0xE3, 0xBD, 0x8B, 0x2E, 0xA3, 0xBE, 0x36, 0x41,
  0xF5, 0x3E, 0xEA, 0x24, 0x14, 0x3F, 0xED, 0x6D, 0x83, 0x3E,
  0x80, 0x13, 0xA1, 0x3E, 0x61, 0x2A, 0xDD, 0xBF, 0xF7, 0xFE,
  0xB1, 0xBF, 0xB1, 0xCA, 0x9D, 0xBF, 0x9D, 0x39, 0x7D, 0xBE,
  0x5C, 0xF7, 0x8B, 0x3F, 0xC7, 0x98, 0xD2, 0xBD, 0x74, 0x06,
  0x97, 0xBE, 0xBD, 0x5B, 0xBD, 0xBD, 0x4B, 0x94, 0xEB, 0xBE,
  0x19, 0x1B, 0x60, 0x3E, 0xEC, 0xDF, 0xA4, 0x3F, 0xED, 0x75,
  0x1D, 0x3F, 0x39, 0xF4, 0x51, 0x3F, 0xDE, 0x46, 0x28, 0x3F,
  0x8A, 0x72, 0xE0, 0x3E, 0x6A, 0x44, 0x5E, 0x3F, 0x4C, 0x57,
  0x12, 0xBD, 0x88, 0x41, 0x01, 0xBF, 0x1F, 0x9E, 0x51, 0xBE,
  0x1F, 0x37, 0x73, 0x3E, 0x7A, 0xC6, 0x1E, 0xBF, 0x35, 0xCB,
  0xF2, 0xBE, 0x8F, 0x26, 0x6B, 0x3F, 0xA8, 0x9C, 0x00, 0x40,
  0x8E, 0x1D, 0xF6, 0x3F, 0x63, 0x45, 0x38, 0x3F, 0xFC, 0xED,
  0x45, 0x3F, 0x4A, 0xD7, 0x0B, 0xBE, 0x1A, 0x8A, 0xFC, 0xBC,
  0x04, 0x95, 0xCE, 0xBE, 0x4E, 0x71, 0x48, 0xBF, 0x16, 0x5C,
  0xD3, 0xBE, 0xF4, 0x14, 0xAF, 0x3E, 0x7B, 0x54, 0x17, 0x3F,
  0xAB, 0xEA, 0xA5, 0xBD, 0x4D, 0xE0, 0x6E, 0x3F, 0xC3, 0xE4,
  0x7F, 0x3F, 0x28, 0x5F, 0x29, 0xBE, 0x7C, 0x19, 0x82, 0xBE,
  0x9C, 0xF7, 0x3B, 0xBF, 0xD5, 0x28, 0x59, 0xBF, 0x90, 0x02,
  0x49, 0xBC, 0x18, 0x50, 0xE8, 0xBE, 0x60, 0xAB, 0x30, 0xBC,
  0x41, 0x92, 0x24, 0x3F, 0x46, 0x08, 0x2C, 0xBF, 0x13, 0x93,
  0x91, 0x3E, 0x4C, 0xA6, 0xCC, 0x3E, 0xF7, 0xCE, 0x53, 0xBF,
  0x15, 0x89, 0x64, 0x3F, 0x5A, 0xAF, 0x6A, 0x3E, 0x93, 0x61,
  0x80, 0x3F, 0x7D, 0x50, 0xDC, 0x3F, 0x41, 0x86, 0xA0, 0x3F,
  0x8C, 0x01, 0x07, 0x3F, 0x15, 0x8F, 0x1E, 0x3E, 0x68, 0x22,
  0x8B, 0xBF, 0x56, 0x79, 0x88, 0xBF, 0xD0, 0xE1, 0xB7, 0x3E,
  0x22, 0xF6, 0x1A, 0xBF, 0xB6, 0x00, 0x13, 0xBE, 0x8E, 0x02,
  0x12, 0x3F, 0x9B, 0x4A, 0x0E, 0x3F, 0x76, 0x38, 0xDE, 0x3E,
  0x6D, 0x68, 0x31, 0xBF, 0x90, 0x23, 0x13, 0x3E, 0x40, 0x49,
  0x37, 0xBD, 0xF0, 0x95, 0x4C, 0xBF, 0x19, 0x81, 0xC7, 0xBD,
  0xA0, 0x9C, 0x10, 0x3F, 0xA7, 0xE7, 0x46, 0xBF, 0x1B, 0x0D,
  0x46, 0xBF, 0x90, 0x6A, 0x4D, 0x3F, 0xF6, 0x5A, 0x21, 0x40,
  0x9E, 0x8B, 0x02, 0x3E, 0x95, 0x21, 0x53, 0xBE, 0x93, 0x8B,
  0xD3, 0xBE, 0xEE, 0xF2, 0x3C, 0x3E, 0xFC, 0x46, 0xB1, 0x3F,
  0x31, 0x52, 0x17, 0x3E, 0xD8, 0x3B, 0x0B, 0xBF, 0x57, 0xA8,
  0xDE, 0xBF, 0x6B, 0xAE, 0xB9, 0xBF, 0xEE, 0x39, 0x67, 0x3D,
  0x74, 0x22, 0xE9, 0x3F, 0xAE, 0xB0, 0x66, 0x40, 0x2D, 0xF3,
  0xA9, 0x3F, 0xA1, 0x3D, 0x7A, 0xBF, 0x1B, 0x78, 0x3F, 0xC0,
  0x59, 0x51, 0x57, 0xC0, 0x17, 0xA1, 0xB0, 0xBF, 0x79, 0xA1,
  0x97, 0x3F, 0x5F, 0x03, 0x33, 0x40, 0x46, 0x1A, 0xF5, 0x3F,
  0xBA, 0x29, 0x93, 0x3E, 0x40, 0xC1, 0x25, 0xBE, 0x3C, 0x30,
  0x77, 0x3E, 0x9F, 0x0A, 0xE5, 0x3C, 0x15, 0xD0, 0x21, 0xBF,
  0xA4, 0xE4, 0xB2, 0xBF, 0x44, 0x5A, 0x02, 0xC0, 0xFA, 0xE2,
  0x04, 0xC0, 0x36, 0x59, 0xBD, 0x3E, 0x91, 0x56, 0x3D, 0x40,
  0xB9, 0xC0, 0x4A, 0x40, 0x72, 0x66, 0x10, 0x40, 0x8F, 0x44,
  0xB0, 0x3D, 0x5E, 0x00, 0xE7, 0xBF, 0x44, 0x93, 0x43, 0xC0,
  0x40, 0xC7, 0x70, 0xC0, 0xE7, 0x4E, 0xA7, 0xBF, 0x6B, 0xA5,
  0x86, 0x3F, 0x4D, 0x54, 0x22, 0x40, 0xA9, 0x57, 0x84, 0x40,
  0x21, 0xCC, 0x2C, 0x40, 0x23, 0xE0, 0x10, 0x3F, 0x34, 0xDA,
  0x0D, 0xC0, 0xA6, 0x6B, 0x5A, 0xC0, 0x0E, 0x2B, 0x7A, 0xC0,
  0x09, 0xCE, 0xAE, 0xBF, 0xE0, 0x3C, 0xA1, 0x3F, 0xC9, 0xF1,
  0xDC, 0x3F, 0x21, 0x3D, 0x39, 0x40, 0x02, 0xB4, 0x23, 0x40,
  0x8F, 0x5A, 0x3A, 0x3F, 0x81, 0x99, 0x0D, 0x3E, 0xCE, 0xD6,
  0x5A, 0xBF, 0x4C, 0x64, 0x1D, 0xC0, 0xB7, 0x12, 0x4A, 0xC0,
  0x3C, 0xE1, 0x08, 0xC0, 0xF5, 0x44, 0x7E, 0xBE, 0xC4, 0x61,
  0xD1, 0x3F, 0x51, 0xBA, 0x33, 0x40, 0xF7, 0x42, 0x2D, 0x40,
  0xB2, 0xC8, 0xDC, 0x3F, 0xD5, 0x4F, 0x8C, 0x3E, 0xCD, 0x4B,
  0xDB, 0xBF, 0xDE, 0x52, 0xCB, 0xBF, 0x46, 0x1B, 0x0C, 0xC0,
  0x2B, 0xA7, 0x05, 0xC0, 0x05, 0x25, 0x64, 0xBD, 0xD1, 0x8D,
  0xF6, 0x3F, 0xB9, 0x13, 0xB9, 0x3F, 0x44, 0xA8, 0x8C, 0x3F,
  0x52, 0x86, 0xE6, 0x3E, 0x32, 0xB7, 0x6C, 0xBF, 0x8B, 0x7D,
  0x23, 0xBF, 0xFD, 0x6A, 0x86, 0x3E, 0xAB, 0x4C, 0xBF, 0xBC,
  0xFE, 0xFB, 0x4F, 0x3E, 0x4A, 0xBD, 0x1A, 0xBD, 0x5A, 0x99,
  0x13, 0xBF, 0xC7, 0x56, 0x81, 0xBF, 0xAE, 0xF5, 0x9F, 0x3F,
  0x89, 0x2E, 0x70, 0x3E, 0xE5, 0xEE, 0x52, 0x3E, 0x96, 0x89,
  0x3C, 0x3E, 0xC9, 0x5C, 0x1E, 0x3E, 0x09, 0x05, 0x74, 0x3E,
  0x70, 0x82, 0x24, 0x3E, 0xBD, 0x40, 0x84, 0x3E, 0xC2, 0xA7,
  0xC4, 0x3D, 0xBD, 0x29, 0x8C, 0x3D, 0x92, 0xD9, 0xC8, 0xBC,
  0xC6, 0xC5, 0x14, 0xBE, 0xD4, 0x38, 0xAC, 0xBE, 0xE8, 0x7B,
  0x22, 0xBF, 0xDE, 0xAC, 0x25, 0xBF, 0xBC, 0x24, 0x06, 0xBF,
  0xBC, 0x91, 0xE0, 0xBE, 0xB8, 0xAD, 0xE1, 0xBE, 0xDA, 0x43,
  0xEE, 0xBE, 0x42, 0x5A, 0x08, 0xBF, 0x4D, 0x38, 0x09, 0xBF,
  0x23, 0x13, 0x83, 0xBE, 0xEC, 0x0B, 0x9D, 0xBD, 0xB5, 0xEA,
  0x47, 0x3E, 0x39, 0x7E, 0x15, 0x3F, 0x44, 0x19, 0x34, 0x3F,
  0xBF, 0x80, 0x40, 0x3F, 0x27, 0xE9, 0x76, 0x3F, 0x93, 0x3C,
  0x87, 0x3F, 0xD7, 0xBD, 0x42, 0x3F, 0x44, 0x61, 0xF6, 0x3E,
  0xC7, 0x00, 0x9A, 0x3E, 0x91, 0x56, 0xB1, 0xBD, 0x55, 0xDB,
  0x92, 0xBE, 0x44, 0xD9, 0x89, 0xBE, 0x97, 0x91, 0x5D, 0xBE,
  0xF5, 0xB0, 0xC1, 0xBE, 0x60, 0xCE, 0xE2, 0xBE, 0xB4, 0xC5,
  0x2A, 0xBF, 0x93, 0xCF, 0x5E, 0xBF, 0x47, 0x2C, 0x92, 0xBF,
  0x74, 0xE1, 0x8B, 0xBF, 0xB1, 0x18, 0x5D, 0xBF, 0xC4, 0x90,
  0x00, 0xBF, 0xF9, 0x1C, 0xC0, 0xBE, 0xD5, 0x9E, 0xB9, 0xBD,
  0x76, 0x90, 0xAD, 0x3E, 0x0A, 0xE0, 0x25, 0x3F, 0x37, 0xE0,
  0x7A, 0x3F, 0xB9, 0x8A, 0x83, 0x3F, 0xC6, 0x81, 0x49, 0x3F,
  0xE6, 0xEF, 0x4A, 0x3F, 0x27, 0xCF, 0x0B, 0x3F, 0x79, 0x82,
  0xC3, 0x3E, 0xFF, 0xC1, 0x8D, 0x3E, 0xA4, 0x75, 0x6C, 0x3E,
  0x3F, 0x3B, 0x24, 0x3E, 0x3D, 0x04, 0x06, 0xBE, 0xB8, 0x2B,
  0x84, 0xBE, 0x5D, 0xCE, 0x7B, 0xBE, 0x96, 0x93, 0xDD, 0xBE,
  0x72, 0x42, 0x5F, 0xBF, 0xF2, 0x4E, 0x5D, 0xBF, 0x73, 0x47,
  0x21, 0xBF, 0x07, 0x0B, 0xEB, 0xBE, 0xA0, 0xA4, 0xB0, 0xBE,
  0x8D, 0xB8, 0x8D, 0xBD, 0x3E, 0xAC, 0x33, 0x3D, 0x2B, 0x29,
  0x0A, 0x3E, 0xB8, 0x05, 0x73, 0x3E, 0x1A, 0xF1, 0xA7, 0x3E,
  0x67, 0xFD, 0x0D, 0x3E, 0x35, 0x23, 0x1E, 0x3E, 0x21, 0x2C,
  0x09, 0x3E, 0x35, 0xF0, 0x5D, 0x3D, 0x0C, 0xAC, 0x4A, 0x3E,
  0xEA, 0x15, 0xDF, 0x3D, 0xCC, 0xA2, 0x2C, 0xBD, 0xC8, 0xC4,
  0xD6, 0x3D, 0x43, 0xFC, 0x45, 0x3D, 0x32, 0x85, 0xC2, 0xBD,
  0x4A, 0x31, 0x3D, 0x3F, 0x85, 0xE4, 0xFF, 0x3E, 0x8F, 0x69,
  0xAE, 0x3E, 0xC5, 0x80, 0xF5, 0xBD, 0xDB, 0x54, 0xA5, 0xBE,
  0x7A, 0xEF, 0xAF, 0xBF, 0x1E, 0xCE, 0xC1, 0xBF, 0x7F, 0xCF,
  0xC5, 0xBF, 0x6C, 0x08, 0x77, 0xBF, 0xFA, 0xAB, 0xFC, 0x3D,
  0xAA, 0x06, 0x9C, 0x3F, 0x7B, 0x58, 0x0E, 0x40, 0xB7, 0xD4,
  0x1F, 0x40, 0x1E, 0x1D, 0x04, 0x40, 0xC6, 0x67, 0xB4, 0x3F,
  0x92, 0xD0, 0x07, 0xBE, 0x0B, 0xEE, 0x8D, 0xBF, 0x8C, 0x32,
  0x32, 0xC0, 0xAB, 0x69, 0x41, 0xC0, 0x91, 0x4A, 0x2E, 0xC0,
  0x81, 0x30, 0xD3, 0xBF, 0x45, 0x34, 0xF0, 0xBE, 0x85, 0xB3,
  0x85, 0x3F, 0x9E, 0xE5, 0x0C, 0x40, 0xA3, 0xCB, 0x3D, 0x40,
  0xED, 0x3C, 0x1C, 0x40, 0x27, 0x71, 0xD0, 0x3F, 0x7D, 0xF1,
  0x8F, 0x3E, 0x3D, 0x85, 0x1C, 0xBF, 0x15, 0xD5, 0xDD, 0xBF,
  0xD7, 0x62, 0x01, 0xC0, 0x90, 0x43, 0xBD, 0xBF, 0x1C, 0xE2,
  0xAC, 0xBF, 0x71, 0x3E, 0x09, 0xBE, 0x74, 0x51, 0x1A, 0x3F,
  0x19, 0x3E, 0x9B, 0x3F, 0x1A, 0xEB, 0xAD, 0x3F, 0x0E, 0xDC,
  0x74, 0x3F, 0xB7, 0x4A, 0xC8, 0x3E, 0x5F, 0x6B, 0x2D, 0xBE,
  0x10, 0x19, 0x2D, 0xBF, 0x97, 0x75, 0x7B, 0xBF, 0x51, 0x71,
  0x68, 0xBF, 0x40, 0x0B, 0x51, 0xBF, 0x00, 0x95, 0xD9, 0xBE,
  0x32, 0x61, 0x24, 0xBD, 0x1E, 0x34, 0x33, 0x3F, 0x9B, 0x3A,
  0x4D, 0x3F, 0xFC, 0x5F, 0x34, 0x3F, 0x32, 0x31, 0x91, 0x3F,
  0x5E, 0xDC, 0xB2, 0x3E, 0x0D, 0x4B, 0x06, 0x3F, 0x22, 0xF8,
  0xEA, 0x3E, 0x53, 0x68, 0x97, 0xBE, 0xA5, 0xA2, 0xF2, 0xBE,
  0xED, 0x99, 0x20, 0xBF, 0xAD, 0xE3, 0xF4, 0xBE, 0x7D, 0xBB,
  0x66, 0xBF, 0x92, 0xF2, 0x6B, 0xBF, 0x83, 0xC4, 0x3E, 0xBF,
  0xAC, 0x4E, 0x21, 0xBF, 0xD8, 0x5F, 0xF7, 0xBE, 0x7F, 0x5D,
  0xBC, 0x3E, 0x3F, 0x96, 0x24, 0x3F, 0x4D, 0x75, 0x52, 0x3F,
  0x35, 0x23, 0xB5, 0x3F, 0x5E, 0x39, 0x80, 0x3F, 0x40, 0x49,
  0x65, 0x3F, 0x7F, 0x5A, 0x19, 0x3F, 0xC3, 0x05, 0x0D, 0xBD,
  0x81, 0x84, 0x33, 0xBF, 0x05, 0x57, 0x11, 0xBF, 0xE8, 0xF9,
  0x98, 0xBF, 0xAB, 0xF4, 0x75, 0xBF, 0x9E, 0x91, 0xC4, 0xBE,
  0x6D, 0x36, 0x9E, 0xBE, 0x4D, 0x3E, 0x25, 0x3E, 0x3A, 0xEF,
  0xC7, 0x3E, 0x31, 0x29, 0x20, 0x3E, 0x6E, 0x85, 0x83, 0x3F,
  0xD0, 0xF3, 0x02, 0x3F, 0x34, 0x1B, 0xF7, 0x3E, 0x0D, 0xC0,
  0xD2, 0x3E, 0xE5, 0x21, 0x34, 0x3F, 0xCD, 0xC0, 0x1C, 0x3D,
  0x7D, 0xA0, 0xB5, 0x3E, 0x26, 0x03, 0x9C, 0x3D, 0x06, 0x6F,
  0x1C, 0x3F, 0x83, 0x21, 0xE4, 0x3E, 0xB7, 0xC7, 0x6D, 0xBE,
  0x33, 0xC3, 0x03, 0x3F, 0x82, 0x0B, 0xC4, 0x3E, 0x05, 0x52,
  0x1D, 0x3F, 0x19, 0x34, 0x12, 0xBD, 0xA4, 0x9C, 0x38, 0xBF,
  0x50, 0x40, 0xC9, 0xBE, 0x71, 0xAF, 0x73, 0xBE, 0x5A, 0x05,
  0x3A, 0xBE, 0x3F, 0xF7, 0xF4, 0xBE, 0x39, 0x34, 0x65, 0xBF,
  0x33, 0x7A, 0x6E, 0xBF, 0xCA, 0x35, 0x1D, 0xBF, 0x1F, 0xBC,
  0xB5, 0xBE, 0xB9, 0x26, 0xDA, 0xBE, 0xEA, 0xE0, 0x4A, 0xBE,
  0xB9, 0x7B, 0xF1, 0xBE, 0x1C, 0x95, 0x96, 0xBF, 0x23, 0x40,
  0x0C, 0xBF, 0x31, 0xDF, 0x02, 0xBD, 0xC0, 0x90, 0x42, 0xBE,
  0xA0, 0xE4, 0x30, 0xBF, 0x57, 0x51, 0x94, 0xBF, 0x2F, 0xAD,
  0xA2, 0xBE, 0x61, 0xD9, 0xDB, 0x3E, 0x03, 0x05, 0x50, 0x3F,
  0xF1, 0x97, 0x09, 0x3F, 0xAD, 0x66, 0xDC, 0x3E, 0x06, 0x80,
  0x2E, 0x3E, 0x89, 0x37, 0x65, 0x3E, 0xBC, 0x71, 0x13, 0x3F,
  0xF8, 0x42, 0x68, 0x3F, 0x43, 0xBC, 0xAD, 0x3F, 0x97, 0x26,
  0x8B, 0x3F, 0x61, 0x16, 0x37, 0x3F, 0x13, 0x99, 0x38, 0xBD,
  0x1D, 0xB3, 0xD3, 0x3E, 0x75, 0x69, 0x3D, 0x3F, 0x07, 0xD2,
  0x8F, 0x3F, 0x83, 0x61, 0x2F, 0x3F, 0x00, 0x41, 0xE5, 0xBD,
  0xA7, 0x27, 0x03, 0x3D, 0xE1, 0x45, 0x11, 0x3D, 0xAB, 0xA6,
  0x37, 0xBE, 0xAF, 0xA6, 0x90, 0xBD, 0x37, 0x7D, 0x09, 0xBD,
  0xB1, 0x37, 0xDD, 0xBE, 0x7E, 0xA4, 0x41, 0xBF, 0x98, 0xDF,
  0x24, 0xBF, 0xD4, 0x6E, 0x4E, 0xBF, 0x26, 0x35, 0x0C, 0xBF,
  0x4C, 0x6E, 0xCF, 0xBE, 0x8F, 0xF1, 0x3F, 0xBF, 0x4E, 0x17,
  0xA9, 0xBE, 0x01, 0x3F, 0x22, 0xBE, 0x52, 0xAC, 0x29, 0xBE,
  0x90, 0xFD, 0x2D, 0xBE, 0xD0, 0x52, 0x01, 0xBF, 0xEF, 0x4D,
  0x65, 0xBF, 0x20, 0x97, 0xCE, 0xBE, 0xF5, 0x63, 0x5D, 0x3E,
  0xCD, 0xCC, 0x42, 0x3E, 0x73, 0x51, 0x81, 0x3E, 0xE6, 0x06,
  0x46, 0xBE, 0x2C, 0x1D, 0x21, 0xBE, 0xF6, 0xC7, 0x55, 0x3E,
  0x4D, 0xF0, 0x3B, 0x3F, 0xA2, 0x64, 0xD1, 0x3E, 0xB5, 0xB5,
  0x01, 0x3F, 0xE4, 0xEE, 0x48, 0x3F, 0x2B, 0x67, 0x73, 0x3F,
  0xA6, 0xFD, 0xFF, 0xFF, 0x04, 0x00, 0x00, 0x00, 0xB0, 0x01,
  0x00, 0x00, 0x37, 0x5C, 0x04, 0xC0, 0xD6, 0x78, 0x08, 0xC0,
  0xB6, 0x0B, 0xFD, 0xBF, 0xC2, 0x94, 0xCC, 0xBF, 0xA9, 0x65,
  0x6E, 0xBE, 0xAD, 0x5F, 0x52, 0x3E, 0x27, 0xD9, 0x52, 0xBF,
  0xF0, 0xEF, 0xC9, 0x3F, 0x79, 0xF8, 0xA6, 0xBD, 0x96, 0x1D,
  0x2F, 0xBF, 0x99, 0xF4, 0xA8, 0x3E, 0x49, 0x04, 0x15, 0xC0,
  0x1F, 0xE8, 0x3A, 0x3F, 0x87, 0x94, 0x71, 0xBF, 0x42, 0x88,
  0x60, 0x3F, 0x8C, 0x98, 0xEA, 0xBE, 0xF5, 0xC9, 0x9E, 0xBF,
  0x03, 0xAC, 0xB7, 0x3E, 0x5A, 0x15, 0xA3, 0xBF, 0x8A, 0xF0,
  0xDE, 0x3E, 0xA9, 0x2C, 0x59, 0xBF, 0x76, 0x01, 0xCF, 0x3F,
  0x16, 0x3E, 0xE0, 0xBE, 0x01, 0xD4, 0x0C, 0x3F, 0xD8, 0xAD,
  0x15, 0x3D, 0xF2, 0x62, 0xA8, 0xBE, 0xED, 0xD6, 0x49, 0x3F,
  0x85, 0x91, 0xE3, 0xBF, 0x52, 0x17, 0x53, 0x3F, 0xA7, 0x85,
  0xA3, 0xBF, 0x4D, 0xD8, 0xAF, 0xBE, 0xBD, 0x9B, 0x29, 0xBE,
  0xEF, 0x24, 0xC4, 0x3F, 0x09, 0x8D, 0x8C, 0xBC, 0xCC, 0xB5,
  0xB6, 0x3F, 0x8F, 0x34, 0x55, 0xBF, 0x0C, 0x5B, 0x01, 0xC0,
  0x0A, 0x1A, 0xC5, 0xBE, 0x53, 0x07, 0xF7, 0xBF, 0x7B, 0x2C,
  0x0A, 0x3F, 0x87, 0xCF, 0x38, 0x3E, 0xD1, 0xF9, 0xDB, 0x3E,
  0x56, 0x70, 0xA3, 0xBE, 0xF0, 0xBB, 0xF7, 0xBD, 0x49, 0x22,
  0x5C, 0x3F, 0x6A, 0x00, 0x2A, 0x3F, 0x83, 0x60, 0x49, 0xBF,
  0x81, 0x48, 0x4F, 0x3F, 0xAF, 0x30, 0x88, 0xBF, 0xDB, 0xE1,
  0x50, 0xBE, 0xBD, 0xD9, 0x96, 0x3E, 0x46, 0x16, 0x9B, 0x3F,
  0x48, 0x34, 0x94, 0x3F, 0x31, 0xE1, 0x4C, 0xBF, 0x05, 0xCA,
  0x8A, 0xBF, 0x85, 0x8C, 0x13, 0x3E, 0xFE, 0x0A, 0x17, 0xBF,
  0x1C, 0xDC, 0x70, 0x3F, 0xEE, 0x51, 0x8F, 0x3F, 0x15, 0x38,
  0x57, 0xBF, 0x93, 0xC7, 0x3B, 0x3F, 0xDE, 0xB9, 0x24, 0xBF,
  0x80, 0x48, 0x3E, 0x3F, 0xCE, 0xD6, 0x29, 0xBF, 0xF5, 0x1D,
  0x94, 0xBF, 0x3B, 0x75, 0x7C, 0x3F, 0x9E, 0x22, 0x86, 0x3E,
  0x13, 0xD5, 0xBD, 0x3E, 0x62, 0x86, 0x0C, 0x3F, 0x3C, 0xDC,
  0x2E, 0xBF, 0x8B, 0x42, 0x84, 0xBF, 0x97, 0x96, 0xDE, 0xBD,
  0x11, 0xAF, 0x74, 0xBE, 0xB9, 0x30, 0x10, 0x40, 0x43, 0xC0,
  0xDC, 0x3E, 0x20, 0x53, 0x9C, 0x3D, 0x06, 0xA8, 0x85, 0xBF,
  0x64, 0xD6, 0x88, 0xBF, 0x8D, 0xAC, 0x85, 0x3F, 0x5E, 0x62,
  0x7A, 0x3E, 0xE2, 0xF9, 0xA3, 0xBD, 0xDB, 0x43, 0x08, 0xBF,
  0xE4, 0xAE, 0x90, 0x3E, 0x1F, 0x7A, 0x69, 0xBF, 0xD6, 0x0C,
  0x65, 0x3D, 0x95, 0xCD, 0x63, 0xBD, 0x62, 0x79, 0xB0, 0xBF,
  0x09, 0x2A, 0x1B, 0x3F, 0x79, 0xF7, 0x3F, 0x3F, 0x37, 0x9B,
  0x9D, 0xBE, 0xC6, 0xD8, 0x50, 0x3F, 0x83, 0xFB, 0x57, 0xBD,
  0xF3, 0x24, 0x77, 0xBF, 0x11, 0xD4, 0x04, 0xBF, 0x80, 0x09,
  0x9E, 0xBF, 0x9D, 0xD7, 0xFA, 0x3D, 0xA1, 0x4C, 0xB3, 0x3E,
  0xA6, 0xAD, 0xB9, 0x3D, 0xAC, 0xB8, 0xC1, 0xBE, 0x1A, 0x15,
  0x13, 0x3F, 0x39, 0xC7, 0x2B, 0xBE, 0x1E, 0x35, 0x91, 0x3F,
  0x75, 0xAD, 0xFF, 0x3E, 0x4B, 0xA3, 0x04, 0xC0, 0xF9, 0x80,
  0x89, 0xBF, 0x3D, 0x33, 0x5B, 0xBF, 0x47, 0x0A, 0x9A, 0xBE,
  0x01, 0x6B, 0xA1, 0x3F, 0x62, 0xFF, 0xFF, 0xFF, 0x04, 0x00,
  0x00, 0x00, 0x30, 0x00, 0x00, 0x00, 0x8E, 0x40, 0x9E, 0x3E,
  0xC8, 0x2D, 0x65, 0xC0, 0x6C, 0x6B, 0x9C, 0xC0, 0xA8, 0x0B,
  0x54, 0xC0, 0x6B, 0x18, 0xE1, 0x3F, 0x2E, 0xEE, 0xD2, 0x40,
  0xDD, 0x2B, 0x81, 0x3E, 0x1C, 0xBA, 0xB5, 0x40, 0x0A, 0x44,
  0x9D, 0xC0, 0xA5, 0xD3, 0x52, 0xC0, 0x59, 0xC6, 0x5E, 0x40,
  0x8B, 0x5C, 0x70, 0xC0, 0x9E, 0xFF, 0xFF, 0xFF, 0x04, 0x00,
  0x00, 0x00, 0x30, 0x00, 0x00, 0x00, 0xB9, 0xE1, 0xB3, 0x3E,
  0x04, 0x15, 0x40, 0x3E, 0x3C, 0x92, 0x84, 0x3F, 0xA5, 0xBC,
  0x00, 0xBE, 0x7E, 0x93, 0x70, 0x3E, 0x00, 0xBA, 0xD2, 0xBA,
  0x3C, 0x94, 0x19, 0x3F, 0x01, 0x4E, 0xC7, 0x3E, 0x82, 0x14,
  0x93, 0x3E, 0xD0, 0x2E, 0x12, 0xBD, 0xE9, 0xE4, 0x91, 0x3F,
  0x7A, 0x8C, 0x66, 0x3F, 0xDA, 0xFF, 0xFF, 0xFF, 0x04, 0x00,
  0x00, 0x00, 0x18, 0x00, 0x00, 0x00, 0x0D, 0xE5, 0x6E, 0x3F,
  0x08, 0xEC, 0xA2, 0xBE, 0x18, 0x29, 0x9A, 0x3E, 0x00, 0x84,
  0x70, 0x3C, 0xE0, 0x64, 0x70, 0xBD, 0x4D, 0x37, 0x9A, 0xBE,
  0x00, 0x00, 0x06, 0x00, 0x08, 0x00, 0x04, 0x00, 0x06, 0x00,
  0x00, 0x00, 0x04, 0x00, 0x00, 0x00, 0x18, 0x00, 0x00, 0x00,
  0xDC, 0x4A, 0x8E, 0x3D, 0x3A, 0x72, 0xBD, 0xBF, 0x9B, 0xF4,
  0x32, 0x3C, 0xBA, 0x78, 0x1D, 0x3E, 0xF4, 0x7F, 0x4D, 0x3A,
  0xEB, 0x79, 0xC1, 0x3E, 0x18, 0xF0, 0xFF, 0xFF, 0x1C, 0xF0,
  0xFF, 0xFF, 0x0F, 0x00, 0x00, 0x00, 0x4D, 0x4C, 0x49, 0x52,
  0x20, 0x43, 0x6F, 0x6E, 0x76, 0x65, 0x72, 0x74, 0x65, 0x64,
  0x2E, 0x00, 0x01, 0x00, 0x00, 0x00, 0x14, 0x00, 0x00, 0x00,
  0x00, 0x00, 0x0E, 0x00, 0x18, 0x00, 0x14, 0x00, 0x10, 0x00,
  0x0C, 0x00, 0x08, 0x00, 0x04, 0x00, 0x0E, 0x00, 0x00, 0x00,
  0x14, 0x00, 0x00, 0x00, 0x1C, 0x00, 0x00, 0x00, 0xC8, 0x03,
  0x00, 0x00, 0xCC, 0x03, 0x00, 0x00, 0xD0, 0x03, 0x00, 0x00,
  0x04, 0x00, 0x00, 0x00, 0x6D, 0x61, 0x69, 0x6E, 0x00, 0x00,
  0x00, 0x00, 0x0D, 0x00, 0x00, 0x00, 0x60, 0x03, 0x00, 0x00,
  0xFC, 0x02, 0x00, 0x00, 0xA8, 0x02, 0x00, 0x00, 0x64, 0x02,
  0x00, 0x00, 0x20, 0x02, 0x00, 0x00, 0xDC, 0x01, 0x00, 0x00,
  0x98, 0x01, 0x00, 0x00, 0x54, 0x01, 0x00, 0x00, 0x10, 0x01,
  0x00, 0x00, 0xC4, 0x00, 0x00, 0x00, 0x80, 0x00, 0x00, 0x00,
  0x58, 0x00, 0x00, 0x00, 0x04, 0x00, 0x00, 0x00, 0x42, 0xFD,
  0xFF, 0xFF, 0x20, 0x00, 0x00, 0x00, 0x00, 0x00, 0x00, 0x08,
  0x20, 0x00, 0x00, 0x00, 0x24, 0x00, 0x00, 0x00, 0x05, 0x00,
  0x00, 0x00, 0x00, 0x00, 0x0A, 0x00, 0x08, 0x00, 0x00, 0x00,
  0x00, 0x00, 0x07, 0x00, 0x0A, 0x00, 0x00, 0x00, 0x00, 0x00,
  0x00, 0x01, 0x01, 0x00, 0x00, 0x00, 0x1C, 0x00, 0x00, 0x00,
  0x03, 0x00, 0x00, 0x00, 0x1B, 0x00, 0x00, 0x00, 0x05, 0x00,
  0x00, 0x00, 0x0B, 0x00, 0x00, 0x00, 0x00, 0x00, 0x0A, 0x00,
  0x10, 0x00, 0x0C, 0x00, 0x08, 0x00, 0x04, 0x00, 0x0A, 0x00,
  0x00, 0x00, 0x0C, 0x00, 0x00, 0x00, 0x10, 0x00, 0x00, 0x00,
  0x04, 0x00, 0x00, 0x00, 0x01, 0x00, 0x00, 0x00, 0x1B, 0x00,
  0x00, 0x00, 0x02, 0x00, 0x00, 0x00, 0x1A, 0x00, 0x00, 0x00,
  0x0A, 0x00, 0x00, 0x00, 0xB6, 0xFD, 0xFF, 0xFF, 0x14, 0x00,
  0x00, 0x00, 0x00, 0x00, 0x00, 0x20, 0x18, 0x00, 0x00, 0x00,
  0x1C, 0x00, 0x00, 0x00, 0x03, 0x00, 0x00, 0x00, 0xC0, 0xFF,
  0xFF, 0xFF, 0x0B, 0x00, 0x00, 0x00, 0x0B, 0x00, 0x00, 0x00,
  0x01, 0x00, 0x00, 0x00, 0x1A, 0x00, 0x00, 0x00, 0x04, 0x00,
  0x00, 0x00, 0x19, 0x00, 0x00, 0x00, 0x0C, 0x00, 0x00, 0x00,
  0x0F, 0x00, 0x00, 0x00, 0x0E, 0x00, 0x00, 0x00, 0xF6, 0xFD,
  0xFF, 0xFF, 0x1C, 0x00, 0x00, 0x00, 0x00, 0x00, 0x00, 0x20,
  0x20, 0x00, 0x00, 0x00, 0x24, 0x00, 0x00, 0x00, 0x03, 0x00,
  0x00, 0x00, 0x08, 0x00, 0x0C, 0x00, 0x08, 0x00, 0x04, 0x00,
  0x08, 0x00, 0x00, 0x00, 0x0D, 0x00, 0x00, 0x00, 0x0D, 0x00,
  0x00, 0x00, 0x01, 0x00, 0x00, 0x00, 0x19, 0x00, 0x00, 0x00,
  0x04, 0x00, 0x00, 0x00, 0x18, 0x00, 0x00, 0x00, 0x0C, 0x00,
  0x00, 0x00, 0x0D, 0x00, 0x00, 0x00, 0x0E, 0x00, 0x00, 0x00,
  0x3E, 0xFE, 0xFF, 0xFF, 0x14, 0x00, 0x00, 0x00, 0x00, 0x00,
  0x00, 0x05, 0x24, 0x00, 0x00, 0x00, 0x28, 0x00, 0x00, 0x00,
  0x02, 0x00, 0x00, 0x00, 0x2E, 0xFE, 0xFF, 0xFF, 0x01, 0x00,
  0x00, 0x00, 0x03, 0x00, 0x00, 0x00, 0x01, 0x00, 0x00, 0x00,
  0x03, 0x00, 0x00, 0x00, 0x00, 0x00, 0x00, 0x01, 0x01, 0x00,
  0x00, 0x00, 0x18, 0x00, 0x00, 0x00, 0x01, 0x00, 0x00, 0x00,
  0x17, 0x00, 0x00, 0x00, 0x7E, 0xFE, 0xFF, 0xFF, 0x14, 0x00,
  0x00, 0x00, 0x00, 0x00, 0x00, 0x05, 0x24, 0x00, 0x00, 0x00,
  0x28, 0x00, 0x00, 0x00, 0x01, 0x00, 0x00, 0x00, 0x6E, 0xFE,
  0xFF, 0xFF, 0x01, 0x00, 0x00, 0x00, 0x04, 0x00, 0x00, 0x00,
  0x01, 0x00, 0x00, 0x00, 0x04, 0x00, 0x00, 0x00, 0x00, 0x00,
  0x00, 0x01, 0x01, 0x00, 0x00, 0x00, 0x17, 0x00, 0x00, 0x00,
  0x01, 0x00, 0x00, 0x00, 0x16, 0x00, 0x00, 0x00, 0x5E, 0xFE,
  0xFF, 0xFF, 0x10, 0x00, 0x00, 0x00, 0x00, 0x00, 0x00, 0x01,
  0x1C, 0x00, 0x00, 0x00, 0x20, 0x00, 0x00, 0x00, 0x50, 0xFE,
  0xFF, 0xFF, 0x00, 0x00, 0x00, 0x01, 0x01, 0x00, 0x00, 0x00,
  0x01, 0x00, 0x00, 0x00, 0x00, 0x00, 0x00, 0x01, 0x01, 0x00,
  0x00, 0x00, 0x16, 0x00, 0x00, 0x00, 0x03, 0x00, 0x00, 0x00,
  0x15, 0x00, 0x00, 0x00, 0x09, 0x00, 0x00, 0x00, 0x04, 0x00,
  0x00, 0x00, 0xFE, 0xFE, 0xFF, 0xFF, 0x14, 0x00, 0x00, 0x00,
  0x00, 0x00, 0x00, 0x05, 0x24, 0x00, 0x00, 0x00, 0x28, 0x00,
  0x00, 0x00, 0x01, 0x00, 0x00, 0x00, 0xEE, 0xFE, 0xFF, 0xFF,
  0x01, 0x00, 0x00, 0x00, 0x04, 0x00, 0x00, 0x00, 0x01, 0x00,
  0x00, 0x00, 0x04, 0x00, 0x00, 0x00, 0x00, 0x00, 0x00, 0x01,
  0x01, 0x00, 0x00, 0x00, 0x15, 0x00, 0x00, 0x00, 0x01, 0x00,
  0x00, 0x00, 0x14, 0x00, 0x00, 0x00, 0xDE, 0xFE, 0xFF, 0xFF,
  0x10, 0x00, 0x00, 0x00, 0x00, 0x00, 0x00, 0x01, 0x1C, 0x00,
  0x00, 0x00, 0x20, 0x00, 0x00, 0x00, 0xD0, 0xFE, 0xFF, 0xFF,
  0x00, 0x00, 0x00, 0x01, 0x01, 0x00, 0x00, 0x00, 0x01, 0x00,
  0x00, 0x00, 0x00, 0x00, 0x00, 0x01, 0x01, 0x00, 0x00, 0x00,
  0x14, 0x00, 0x00, 0x00, 0x03, 0x00, 0x00, 0x00, 0x13, 0x00,
  0x00, 0x00, 0x08, 0x00, 0x00, 0x00, 0x03, 0x00, 0x00, 0x00,
  0x7E, 0xFF, 0xFF, 0xFF, 0x14, 0x00, 0x00, 0x00, 0x00, 0x00,
  0x00, 0x05, 0x24, 0x00, 0x00, 0x00, 0x28, 0x00, 0x00, 0x00,
  0x01, 0x00, 0x00, 0x00, 0x6E, 0xFF, 0xFF, 0xFF, 0x01, 0x00,
  0x00, 0x00, 0x04, 0x00, 0x00, 0x00, 0x01, 0x00, 0x00, 0x00,
  0x04, 0x00, 0x00, 0x00, 0x00, 0x00, 0x00, 0x01, 0x01, 0x00,
  0x00, 0x00, 0x13, 0x00, 0x00, 0x00, 0x01, 0x00, 0x00, 0x00,
  0x12, 0x00, 0x00, 0x00, 0x5E, 0xFF, 0xFF, 0xFF, 0x10, 0x00,
  0x00, 0x00, 0x00, 0x00, 0x00, 0x01, 0x1C, 0x00, 0x00, 0x00,
  0x20, 0x00, 0x00, 0x00, 0x50, 0xFF, 0xFF, 0xFF, 0x00, 0x00,
  0x00, 0x01, 0x01, 0x00, 0x00, 0x00, 0x01, 0x00, 0x00, 0x00,
  0x00, 0x00, 0x00, 0x01, 0x01, 0x00, 0x00, 0x00, 0x12, 0x00,
  0x00, 0x00, 0x03, 0x00, 0x00, 0x00, 0x11, 0x00, 0x00, 0x00,
  0x07, 0x00, 0x00, 0x00, 0x02, 0x00, 0x00, 0x00, 0x00, 0x00,
  0x0E, 0x00, 0x1A, 0x00, 0x14, 0x00, 0x10, 0x00, 0x0C, 0x00,
  0x0B, 0x00, 0x04, 0x00, 0x0E, 0x00, 0x00, 0x00, 0x24, 0x00,
  0x00, 0x00, 0x00, 0x00, 0x00, 0x05, 0x34, 0x00, 0x00, 0x00,
  0x38, 0x00, 0x00, 0x00, 0x01, 0x00, 0x00, 0x00, 0x00, 0x00,
  0x0E, 0x00, 0x18, 0x00, 0x17, 0x00, 0x10, 0x00, 0x0C, 0x00,
  0x08, 0x00, 0x04, 0x00, 0x0E, 0x00, 0x00, 0x00, 0x01, 0x00,
  0x00, 0x00, 0x04, 0x00, 0x00, 0x00, 0x01, 0x00, 0x00, 0x00,
  0x04, 0x00, 0x00, 0x00, 0x00, 0x00, 0x00, 0x01, 0x01, 0x00,
  0x00, 0x00, 0x11, 0x00, 0x00, 0x00, 0x01, 0x00, 0x00, 0x00,
  0x10, 0x00, 0x00, 0x00, 0x00, 0x00, 0x0E, 0x00, 0x14, 0x00,
  0x00, 0x00, 0x10, 0x00, 0x0C, 0x00, 0x0B, 0x00, 0x04, 0x00,
  0x0E, 0x00, 0x00, 0x00, 0x1C, 0x00, 0x00, 0x00, 0x00, 0x00,
  0x00, 0x01, 0x28, 0x00, 0x00, 0x00, 0x2C, 0x00, 0x00, 0x00,
  0x0C, 0x00, 0x14, 0x00, 0x13, 0x00, 0x0C, 0x00, 0x08, 0x00,
  0x07, 0x00, 0x0C, 0x00, 0x00, 0x00, 0x00, 0x00, 0x00, 0x01,
  0x01, 0x00, 0x00, 0x00, 0x10, 0x00, 0x00, 0x00, 0x00, 0x00,
  0x00, 0x01, 0x01, 0x00, 0x00, 0x00, 0x10, 0x00, 0x00, 0x00,
  0x03, 0x00, 0x00, 0x00, 0x00, 0x00, 0x00, 0x00, 0x06, 0x00,
  0x00, 0x00, 0x01, 0x00, 0x00, 0x00, 0x01, 0x00, 0x00, 0x00,
  0x1C, 0x00, 0x00, 0x00, 0x01, 0x00, 0x00, 0x00, 0x00, 0x00,
  0x00, 0x00, 0x1D, 0x00, 0x00, 0x00, 0xB4, 0x0B, 0x00, 0x00,
  0x54, 0x0B, 0x00, 0x00, 0x0C, 0x0B, 0x00, 0x00, 0xC4, 0x0A,
  0x00, 0x00, 0x7C, 0x0A, 0x00, 0x00, 0x28, 0x0A, 0x00, 0x00,
  0xC8, 0x09, 0x00, 0x00, 0x68, 0x09, 0x00, 0x00, 0x08, 0x09,
  0x00, 0x00, 0xA8, 0x08, 0x00, 0x00, 0x54, 0x08, 0x00, 0x00,
  0xF8, 0x07, 0x00, 0x00, 0x90, 0x07, 0x00, 0x00, 0x28, 0x07,
  0x00, 0x00, 0xC0, 0x06, 0x00, 0x00, 0x54, 0x06, 0x00, 0x00,
  0x84, 0x05, 0x00, 0x00, 0x28, 0x05, 0x00, 0x00, 0x78, 0x04,
  0x00, 0x00, 0x18, 0x04, 0x00, 0x00, 0x40, 0x03, 0x00, 0x00,
  0xE0, 0x02, 0x00, 0x00, 0x30, 0x02, 0x00, 0x00, 0xD0, 0x01,
  0x00, 0x00, 0x6C, 0x01, 0x00, 0x00, 0x04, 0x01, 0x00, 0x00,
  0x98, 0x00, 0x00, 0x00, 0x44, 0x00, 0x00, 0x00, 0x04, 0x00,
  0x00, 0x00, 0xD6, 0xF4, 0xFF, 0xFF, 0x00, 0x00, 0x00, 0x01,
  0x10, 0x00, 0x00, 0x00, 0x10, 0x00, 0x00, 0x00, 0x1D, 0x00,
  0x00, 0x00, 0x18, 0x00, 0x00, 0x00, 0xC0, 0xF4, 0xFF, 0xFF,
  0x08, 0x00, 0x00, 0x00, 0x49, 0x64, 0x65, 0x6E, 0x74, 0x69,
  0x74, 0x79, 0x00, 0x00, 0x00, 0x00, 0x03, 0x00, 0x00, 0x00,
  0x01, 0x00, 0x00, 0x00, 0x01, 0x00, 0x00, 0x00, 0x09, 0x00,
  0x00, 0x00, 0x12, 0xF5, 0xFF, 0xFF, 0x00, 0x00, 0x00, 0x01,
  0x10, 0x00, 0x00, 0x00, 0x10, 0x00, 0x00, 0x00, 0x1C, 0x00,
  0x00, 0x00, 0x2C, 0x00, 0x00, 0x00, 0xFC, 0xF4, 0xFF, 0xFF,
  0x1C, 0x00, 0x00, 0x00, 0x6D, 0x6F, 0x64, 0x65, 0x6C, 0x5F,
  0x34, 0x2F, 0x74, 0x66, 0x2E, 0x72, 0x65, 0x73, 0x68, 0x61,
  0x70, 0x65, 0x5F, 0x32, 0x2F, 0x52, 0x65, 0x73, 0x68, 0x61,
  0x70, 0x65, 0x00, 0x00, 0x00, 0x00, 0x03, 0x00, 0x00, 0x00,
  0x01, 0x00, 0x00, 0x00, 0x01, 0x00, 0x00, 0x00, 0x0C, 0x00,
  0x00, 0x00, 0x62, 0xF5, 0xFF, 0xFF, 0x00, 0x00, 0x00, 0x01,
  0x10, 0x00, 0x00, 0x00, 0x10, 0x00, 0x00, 0x00, 0x1B, 0x00,
  0x00, 0x00, 0x40, 0x00, 0x00, 0x00, 0x4C, 0xF5, 0xFF, 0xFF,
  0x30, 0x00, 0x00, 0x00, 0x6D, 0x6F, 0x64, 0x65, 0x6C, 0x5F,
  0x34, 0x2F, 0x74, 0x66, 0x2E, 0x5F, 0x5F, 0x6F, 0x70, 0x65,
  0x72, 0x61, 0x74, 0x6F, 0x72, 0x73, 0x5F, 0x5F, 0x2E, 0x67,
  0x65, 0x74, 0x69, 0x74, 0x65, 0x6D, 0x5F, 0x31, 0x2F, 0x73,
  0x74, 0x72, 0x69, 0x64, 0x65, 0x64, 0x5F, 0x73, 0x6C, 0x69,
  0x63, 0x65, 0x00, 0x00, 0x00, 0x00, 0x04, 0x00, 0x00, 0x00,
  0x01, 0x00, 0x00, 0x00, 0x01, 0x00, 0x00, 0x00, 0x01, 0x00,
  0x00, 0x00, 0x0C, 0x00, 0x00, 0x00, 0xCA, 0xF5, 0xFF, 0xFF,
  0x00, 0x00, 0x00, 0x01, 0x10, 0x00, 0x00, 0x00, 0x10, 0x00,
  0x00, 0x00, 0x1A, 0x00, 0x00, 0x00, 0x3C, 0x00, 0x00, 0x00,
  0xB4, 0xF5, 0xFF, 0xFF, 0x2E, 0x00, 0x00, 0x00, 0x6D, 0x6F,
  0x64, 0x65, 0x6C, 0x5F, 0x34, 0x2F, 0x74, 0x66, 0x2E, 0x5F,
  0x5F, 0x6F, 0x70, 0x65, 0x72, 0x61, 0x74, 0x6F, 0x72, 0x73,
  0x5F, 0x5F, 0x2E, 0x67, 0x65, 0x74, 0x69, 0x74, 0x65, 0x6D,
  0x2F, 0x73, 0x74, 0x72, 0x69, 0x64, 0x65, 0x64, 0x5F, 0x73,
  0x6C, 0x69, 0x63, 0x65, 0x00, 0x00, 0x04, 0x00, 0x00, 0x00,
  0x01, 0x00, 0x00, 0x00, 0x01, 0x00, 0x00, 0x00, 0x01, 0x00,
  0x00, 0x00, 0x0C, 0x00, 0x00, 0x00, 0x2E, 0xF6, 0xFF, 0xFF,
  0x00, 0x00, 0x00, 0x01, 0x10, 0x00, 0x00, 0x00, 0x10, 0x00,
  0x00, 0x00, 0x19, 0x00, 0x00, 0x00, 0x38, 0x00, 0x00, 0x00,
  0x18, 0xF6, 0xFF, 0xFF, 0x28, 0x00, 0x00, 0x00, 0x6D, 0x6F,
  0x64, 0x65, 0x6C, 0x5F, 0x34, 0x2F, 0x74, 0x66, 0x2E, 0x63,
  0x6F, 0x6D, 0x70, 0x61, 0x74, 0x2E, 0x76, 0x31, 0x2E, 0x6E,
  0x6E, 0x2E, 0x61, 0x76, 0x67, 0x5F, 0x70, 0x6F, 0x6F, 0x6C,
  0x2F, 0x41, 0x76, 0x67, 0x50, 0x6F, 0x6F, 0x6C, 0x00, 0x00,
  0x00, 0x00, 0x04, 0x00, 0x00, 0x00, 0x01, 0x00, 0x00, 0x00,
  0x01, 0x00, 0x00, 0x00, 0x01, 0x00, 0x00, 0x00, 0x0C, 0x00,
  0x00, 0x00, 0x8E, 0xF6, 0xFF, 0xFF, 0x00, 0x00, 0x00, 0x01,
  0x10, 0x00, 0x00, 0x00, 0x10, 0x00, 0x00, 0x00, 0x18, 0x00,
  0x00, 0x00, 0x34, 0x00, 0x00, 0x00, 0x78, 0xF6, 0xFF, 0xFF,
  0x24, 0x00, 0x00, 0x00, 0x6D, 0x6F, 0x64, 0x65, 0x6C, 0x5F,
  0x34, 0x2F, 0x74, 0x66, 0x2E, 0x6E, 0x6E, 0x2E, 0x6D, 0x61,
  0x78, 0x5F, 0x70, 0x6F, 0x6F, 0x6C, 0x32, 0x64, 0x5F, 0x33,
  0x2F, 0x4D, 0x61, 0x78, 0x50, 0x6F, 0x6F, 0x6C, 0x32, 0x64,
  0x00, 0x00, 0x00, 0x00, 0x04, 0x00, 0x00, 0x00, 0x01, 0x00,
  0x00, 0x00, 0x01, 0x00, 0x00, 0x00, 0x03, 0x00, 0x00, 0x00,
  0x0C, 0x00, 0x00, 0x00, 0xEA, 0xF6, 0xFF, 0xFF, 0x00, 0x00,
  0x00, 0x01, 0x10, 0x00, 0x00, 0x00, 0x10, 0x00, 0x00, 0x00,
  0x17, 0x00, 0x00, 0x00, 0x84, 0x00, 0x00, 0x00, 0xD4, 0xF6,
  0xFF, 0xFF, 0x77, 0x00, 0x00, 0x00, 0x6D, 0x6F, 0x64, 0x65,
  0x6C, 0x5F, 0x34, 0x2F, 0x74, 0x66, 0x2E, 0x6E, 0x6E, 0x2E,
  0x72, 0x65, 0x6C, 0x75, 0x5F, 0x33, 0x2F, 0x52, 0x65, 0x6C,
  0x75, 0x3B, 0x6D, 0x6F, 0x64, 0x65, 0x6C, 0x5F, 0x34, 0x2F,
  0x74, 0x66, 0x2E, 0x6D, 0x61, 0x74, 0x68, 0x2E, 0x61, 0x64,
  0x64, 0x5F, 0x33, 0x2F, 0x41, 0x64, 0x64, 0x3B, 0x6D, 0x6F,
  0x64, 0x65, 0x6C, 0x5F, 0x34, 0x2F, 0x74, 0x66, 0x2E, 0x6E,
  0x6E, 0x2E, 0x63, 0x6F, 0x6E, 0x76, 0x6F, 0x6C, 0x75, 0x74,
  0x69, 0x6F, 0x6E, 0x5F, 0x33, 0x2F, 0x63, 0x6F, 0x6E, 0x76,
  0x6F, 0x6C, 0x75, 0x74, 0x69, 0x6F, 0x6E, 0x3B, 0x6D, 0x6F,
  0x64, 0x65, 0x6C, 0x5F, 0x34, 0x2F, 0x74, 0x66, 0x2E, 0x6D,
  0x61, 0x74, 0x68, 0x2E, 0x61, 0x64, 0x64, 0x5F, 0x33, 0x2F,
  0x41, 0x64, 0x64, 0x2F, 0x79, 0x00, 0x04, 0x00, 0x00, 0x00,
  0x01, 0x00, 0x00, 0x00, 0x01, 0x00, 0x00, 0x00, 0x0C, 0x00,
  0x00, 0x00, 0x0C, 0x00, 0x00, 0x00, 0x96, 0xF7, 0xFF, 0xFF,
  0x00, 0x00, 0x00, 0x01, 0x10, 0x00, 0x00, 0x00, 0x10, 0x00,
  0x00, 0x00, 0x16, 0x00, 0x00, 0x00, 0x34, 0x00, 0x00, 0x00,
  0x80, 0xF7, 0xFF, 0xFF, 0x24, 0x00, 0x00, 0x00, 0x6D, 0x6F,
  0x64, 0x65, 0x6C, 0x5F, 0x34, 0x2F, 0x74, 0x66, 0x2E, 0x6E,
  0x6E, 0x2E, 0x6D, 0x61, 0x78, 0x5F, 0x70, 0x6F, 0x6F, 0x6C,
  0x32, 0x64, 0x5F, 0x32, 0x2F, 0x4D, 0x61, 0x78, 0x50, 0x6F,
  0x6F, 0x6C, 0x32, 0x64, 0x00, 0x00, 0x00, 0x00, 0x04, 0x00,
  0x00, 0x00, 0x01, 0x00, 0x00, 0x00, 0x01, 0x00, 0x00, 0x00,
  0x0E, 0x00, 0x00, 0x00, 0x0C, 0x00, 0x00, 0x00, 0xF2, 0xF7,
  0xFF, 0xFF, 0x00, 0x00, 0x00, 0x01, 0x10, 0x00, 0x00, 0x00,
  0x10, 0x00, 0x00, 0x00, 0x15, 0x00, 0x00, 0x00, 0xAC, 0x00,
  0x00, 0x00, 0xDC, 0xF7, 0xFF, 0xFF, 0x9F, 0x00, 0x00, 0x00,
  0x6D, 0x6F, 0x64, 0x65, 0x6C, 0x5F, 0x34, 0x2F, 0x74, 0x66,
  0x2E, 0x6E, 0x6E, 0x2E, 0x72, 0x65, 0x6C, 0x75, 0x5F, 0x32,
  0x2F, 0x52, 0x65, 0x6C, 0x75, 0x3B, 0x6D, 0x6F, 0x64, 0x65,
  0x6C, 0x5F, 0x34, 0x2F, 0x74, 0x66, 0x2E, 0x6D, 0x61, 0x74,
  0x68, 0x2E, 0x61, 0x64, 0x64, 0x5F, 0x32, 0x2F, 0x41, 0x64,
  0x64, 0x3B, 0x6D, 0x6F, 0x64, 0x65, 0x6C, 0x5F, 0x34, 0x2F,
  0x74, 0x66, 0x2E, 0x6E, 0x6E, 0x2E, 0x63, 0x6F, 0x6E, 0x76,
  0x6F, 0x6C, 0x75, 0x74, 0x69, 0x6F, 0x6E, 0x5F, 0x33, 0x2F,
  0x63, 0x6F, 0x6E, 0x76, 0x6F, 0x6C, 0x75, 0x74, 0x69, 0x6F,
  0x6E, 0x3B, 0x6D, 0x6F, 0x64, 0x65, 0x6C, 0x5F, 0x34, 0x2F,
  0x74, 0x66, 0x2E, 0x6E, 0x6E, 0x2E, 0x63, 0x6F, 0x6E, 0x76,
  0x6F, 0x6C, 0x75, 0x74, 0x69, 0x6F, 0x6E, 0x5F, 0x32, 0x2F,
  0x63, 0x6F, 0x6E, 0x76, 0x6F, 0x6C, 0x75, 0x74, 0x69, 0x6F,
  0x6E, 0x3B, 0x6D, 0x6F, 0x64, 0x65, 0x6C, 0x5F, 0x34, 0x2F,
  0x74, 0x66, 0x2E, 0x6D, 0x61, 0x74, 0x68, 0x2E, 0x61, 0x64,
  0x64, 0x5F, 0x32, 0x2F, 0x41, 0x64, 0x64, 0x2F, 0x79, 0x00,
  0x04, 0x00, 0x00, 0x00, 0x01, 0x00, 0x00, 0x00, 0x01, 0x00,
  0x00, 0x00, 0x3B, 0x00, 0x00, 0x00, 0x0C, 0x00, 0x00, 0x00,
  0xC6, 0xF8, 0xFF, 0xFF, 0x00, 0x00, 0x00, 0x01, 0x10, 0x00,
  0x00, 0x00, 0x10, 0x00, 0x00, 0x00, 0x14, 0x00, 0x00, 0x00,
  0x34, 0x00, 0x00, 0x00, 0xB0, 0xF8, 0xFF, 0xFF, 0x24, 0x00,
  0x00, 0x00, 0x6D, 0x6F, 0x64, 0x65, 0x6C, 0x5F, 0x34, 0x2F,
  0x74, 0x66, 0x2E, 0x6E, 0x6E, 0x2E, 0x6D, 0x61, 0x78, 0x5F,
  0x70, 0x6F, 0x6F, 0x6C, 0x32, 0x64, 0x5F, 0x31, 0x2F, 0x4D,
  0x61, 0x78, 0x50, 0x6F, 0x6F, 0x6C, 0x32, 0x64, 0x00, 0x00,
  0x00, 0x00, 0x04, 0x00, 0x00, 0x00, 0x01, 0x00, 0x00, 0x00,
  0x01, 0x00, 0x00, 0x00, 0x3D, 0x00, 0x00, 0x00, 0x06, 0x00,
  0x00, 0x00, 0x22, 0xF9, 0xFF, 0xFF, 0x00, 0x00, 0x00, 0x01,
  0x10, 0x00, 0x00, 0x00, 0x10, 0x00, 0x00, 0x00, 0x13, 0x00,
  0x00, 0x00, 0x84, 0x00, 0x00, 0x00, 0x0C, 0xF9, 0xFF, 0xFF,
  0x77, 0x00, 0x00, 0x00, 0x6D, 0x6F, 0x64, 0x65, 0x6C, 0x5F,
  0x34, 0x2F, 0x74, 0x66, 0x2E, 0x6E, 0x6E, 0x2E, 0x72, 0x65,
  0x6C, 0x75, 0x5F, 0x31, 0x2F, 0x52, 0x65, 0x6C, 0x75, 0x3B,
  0x6D, 0x6F, 0x64, 0x65, 0x6C, 0x5F, 0x34, 0x2F, 0x74, 0x66,
  0x2E, 0x6D, 0x61, 0x74, 0x68, 0x2E, 0x61, 0x64, 0x64, 0x5F,
  0x31, 0x2F, 0x41, 0x64, 0x64, 0x3B, 0x6D, 0x6F, 0x64, 0x65,
  0x6C, 0x5F, 0x34, 0x2F, 0x74, 0x66, 0x2E, 0x6E, 0x6E, 0x2E,
  0x63, 0x6F, 0x6E, 0x76, 0x6F, 0x6C, 0x75, 0x74, 0x69, 0x6F,
  0x6E, 0x5F, 0x31, 0x2F, 0x63, 0x6F, 0x6E, 0x76, 0x6F, 0x6C,
  0x75, 0x74, 0x69, 0x6F, 0x6E, 0x3B, 0x6D, 0x6F, 0x64, 0x65,
  0x6C, 0x5F, 0x34, 0x2F, 0x74, 0x66, 0x2E, 0x6D, 0x61, 0x74,
  0x68, 0x2E, 0x61, 0x64, 0x64, 0x5F, 0x31, 0x2F, 0x41, 0x64,
  0x64, 0x2F, 0x79, 0x00, 0x04, 0x00, 0x00, 0x00, 0x01, 0x00,
  0x00, 0x00, 0x01, 0x00, 0x00, 0x00, 0xF7, 0x00, 0x00, 0x00,
  0x06, 0x00, 0x00, 0x00, 0xCE, 0xF9, 0xFF, 0xFF, 0x00, 0x00,
  0x00, 0x01, 0x10, 0x00, 0x00, 0x00, 0x10, 0x00, 0x00, 0x00,
  0x12, 0x00, 0x00, 0x00, 0x30, 0x00, 0x00, 0x00, 0xB8, 0xF9,
  0xFF, 0xFF, 0x22, 0x00, 0x00, 0x00, 0x6D, 0x6F, 0x64, 0x65,
  0x6C, 0x5F, 0x34, 0x2F, 0x74, 0x66, 0x2E, 0x6E, 0x6E, 0x2E,
  0x6D, 0x61, 0x78, 0x5F, 0x70, 0x6F, 0x6F, 0x6C, 0x32, 0x64,
  0x2F, 0x4D, 0x61, 0x78, 0x50, 0x6F, 0x6F, 0x6C, 0x32, 0x64,
  0x00, 0x00, 0x04, 0x00, 0x00, 0x00, 0x01, 0x00, 0x00, 0x00,
  0x01, 0x00, 0x00, 0x00, 0xF9, 0x00, 0x00, 0x00, 0x06, 0x00,
  0x00, 0x00, 0x26, 0xFA, 0xFF, 0xFF, 0x00, 0x00, 0x00, 0x01,
  0x10, 0x00, 0x00, 0x00, 0x10, 0x00, 0x00, 0x00, 0x11, 0x00,
  0x00, 0x00, 0xA4, 0x00, 0x00, 0x00, 0x10, 0xFA, 0xFF, 0xFF,
  0x97, 0x00, 0x00, 0x00, 0x6D, 0x6F, 0x64, 0x65, 0x6C, 0x5F,
  0x34, 0x2F, 0x74, 0x66, 0x2E, 0x6E, 0x6E, 0x2E, 0x72, 0x65,
  0x6C, 0x75, 0x2F, 0x52, 0x65, 0x6C, 0x75, 0x3B, 0x6D, 0x6F,
  0x64, 0x65, 0x6C, 0x5F, 0x34, 0x2F, 0x74, 0x66, 0x2E, 0x6D,
  0x61, 0x74, 0x68, 0x2E, 0x61, 0x64, 0x64, 0x2F, 0x41, 0x64,
  0x64, 0x3B, 0x6D, 0x6F, 0x64, 0x65, 0x6C, 0x5F, 0x34, 0x2F,
  0x74, 0x66, 0x2E, 0x6E, 0x6E, 0x2E, 0x63, 0x6F, 0x6E, 0x76,
  0x6F, 0x6C, 0x75, 0x74, 0x69, 0x6F, 0x6E, 0x5F, 0x31, 0x2F,
  0x63, 0x6F, 0x6E, 0x76, 0x6F, 0x6C, 0x75, 0x74, 0x69, 0x6F,
  0x6E, 0x3B, 0x6D, 0x6F, 0x64, 0x65, 0x6C, 0x5F, 0x34, 0x2F,
  0x74, 0x66, 0x2E, 0x6E, 0x6E, 0x2E, 0x63, 0x6F, 0x6E, 0x76,
  0x6F, 0x6C, 0x75, 0x74, 0x69, 0x6F, 0x6E, 0x2F, 0x63, 0x6F,
  0x6E, 0x76, 0x6F, 0x6C, 0x75, 0x74, 0x69, 0x6F, 0x6E, 0x3B,
  0x6D, 0x6F, 0x64, 0x65, 0x6C, 0x5F, 0x34, 0x2F, 0x74, 0x66,
  0x2E, 0x6D, 0x61, 0x74, 0x68, 0x2E, 0x61, 0x64, 0x64, 0x2F,
  0x41, 0x64, 0x64, 0x2F, 0x79, 0x00, 0x04, 0x00, 0x00, 0x00,
  0x01, 0x00, 0x00, 0x00, 0x01, 0x00, 0x00, 0x00, 0xE4, 0x03,
  0x00, 0x00, 0x06, 0x00, 0x00, 0x00, 0x2A, 0xFE, 0xFF, 0xFF,
  0x00, 0x00, 0x00, 0x01, 0x14, 0x00, 0x00, 0x00, 0x14, 0x00,
  0x00, 0x00, 0x10, 0x00, 0x00, 0x00, 0x00, 0x00, 0x00, 0x02,
  0x48, 0x00, 0x00, 0x00, 0xE0, 0xFA, 0xFF, 0xFF, 0x38, 0x00,
  0x00, 0x00, 0x6D, 0x6F, 0x64, 0x65, 0x6C, 0x5F, 0x34, 0x2F,
  0x74, 0x66, 0x2E, 0x5F, 0x5F, 0x6F, 0x70, 0x65, 0x72, 0x61,
  0x74, 0x6F, 0x72, 0x73, 0x5F, 0x5F, 0x2E, 0x67, 0x65, 0x74,
  0x69, 0x74, 0x65, 0x6D, 0x5F, 0x31, 0x2F, 0x73, 0x74, 0x72,
  0x69, 0x64, 0x65, 0x64, 0x5F, 0x73, 0x6C, 0x69, 0x63, 0x65,
  0x2F, 0x73, 0x74, 0x61, 0x63, 0x6B, 0x5F, 0x31, 0x00, 0x00,
  0x00, 0x00, 0x01, 0x00, 0x00, 0x00, 0x04, 0x00, 0x00, 0x00,
  0x92, 0xFE, 0xFF, 0xFF, 0x00, 0x00, 0x00, 0x01, 0x14, 0x00,
  0x00, 0x00, 0x14, 0x00, 0x00, 0x00, 0x0F, 0x00, 0x00, 0x00,
  0x00, 0x00, 0x00, 0x02, 0x44, 0x00, 0x00, 0x00, 0x48, 0xFB,
  0xFF, 0xFF, 0x36, 0x00, 0x00, 0x00, 0x6D, 0x6F, 0x64, 0x65,
  0x6C, 0x5F, 0x34, 0x2F, 0x74, 0x66, 0x2E, 0x5F, 0x5F, 0x6F,
  0x70, 0x65, 0x72, 0x61, 0x74, 0x6F, 0x72, 0x73, 0x5F, 0x5F,
  0x2E, 0x67, 0x65, 0x74, 0x69, 0x74, 0x65, 0x6D, 0x2F, 0x73,
  0x74, 0x72, 0x69, 0x64, 0x65, 0x64, 0x5F, 0x73, 0x6C, 0x69,
  0x63, 0x65, 0x2F, 0x73, 0x74, 0x61, 0x63, 0x6B, 0x5F, 0x32,
  0x00, 0x00, 0x01, 0x00, 0x00, 0x00, 0x04, 0x00, 0x00, 0x00,
  0xF6, 0xFE, 0xFF, 0xFF, 0x00, 0x00, 0x00, 0x01, 0x14, 0x00,
  0x00, 0x00, 0x14, 0x00, 0x00, 0x00, 0x0E, 0x00, 0x00, 0x00,
  0x00, 0x00, 0x00, 0x02, 0x44, 0x00, 0x00, 0x00, 0xAC, 0xFB,
  0xFF, 0xFF, 0x36, 0x00, 0x00, 0x00, 0x6D, 0x6F, 0x64, 0x65,
  0x6C, 0x5F, 0x34, 0x2F, 0x74, 0x66, 0x2E, 0x5F, 0x5F, 0x6F,
  0x70, 0x65, 0x72, 0x61, 0x74, 0x6F, 0x72, 0x73, 0x5F, 0x5F,
  0x2E, 0x67, 0x65, 0x74, 0x69, 0x74, 0x65, 0x6D, 0x2F, 0x73,
  0x74, 0x72, 0x69, 0x64, 0x65, 0x64, 0x5F, 0x73, 0x6C, 0x69,
  0x63, 0x65, 0x2F, 0x73, 0x74, 0x61, 0x63, 0x6B, 0x5F, 0x31,
  0x00, 0x00, 0x01, 0x00, 0x00, 0x00, 0x04, 0x00, 0x00, 0x00,
  0x5A, 0xFF, 0xFF, 0xFF, 0x00, 0x00, 0x00, 0x01, 0x14, 0x00,
  0x00, 0x00, 0x14, 0x00, 0x00, 0x00, 0x0D, 0x00, 0x00, 0x00,
  0x00, 0x00, 0x00, 0x02, 0x44, 0x00, 0x00, 0x00, 0x10, 0xFC,
  0xFF, 0xFF, 0x34, 0x00, 0x00, 0x00, 0x6D, 0x6F, 0x64, 0x65,
  0x6C, 0x5F, 0x34, 0x2F, 0x74, 0x66, 0x2E, 0x5F, 0x5F, 0x6F,
  0x70, 0x65, 0x72, 0x61, 0x74, 0x6F, 0x72, 0x73, 0x5F, 0x5F,
  0x2E, 0x67, 0x65, 0x74, 0x69, 0x74, 0x65, 0x6D, 0x2F, 0x73,
  0x74, 0x72, 0x69, 0x64, 0x65, 0x64, 0x5F, 0x73, 0x6C, 0x69,
  0x63, 0x65, 0x2F, 0x73, 0x74, 0x61, 0x63, 0x6B, 0x00, 0x00,
  0x00, 0x00, 0x01, 0x00, 0x00, 0x00, 0x04, 0x00, 0x00, 0x00,
  0x86, 0xFC, 0xFF, 0xFF, 0x00, 0x00, 0x00, 0x01, 0x10, 0x00,
  0x00, 0x00, 0x10, 0x00, 0x00, 0x00, 0x0C, 0x00, 0x00, 0x00,
  0x24, 0x00, 0x00, 0x00, 0x70, 0xFC, 0xFF, 0xFF, 0x14, 0x00,
  0x00, 0x00, 0x6D, 0x6F, 0x64, 0x65, 0x6C, 0x5F, 0x34, 0x2F,
  0x6F, 0x75, 0x74, 0x70, 0x75, 0x74, 0x2F, 0x41, 0x64, 0x64,
  0x2F, 0x79, 0x00, 0x00, 0x00, 0x00, 0x01, 0x00, 0x00, 0x00,
  0x09, 0x00, 0x00, 0x00, 0x00, 0x00, 0x16, 0x00, 0x1C, 0x00,
  0x18, 0x00, 0x17, 0x00, 0x10, 0x00, 0x0C, 0x00, 0x08, 0x00,
  0x00, 0x00, 0x00, 0x00, 0x00, 0x00, 0x07, 0x00, 0x16, 0x00,
  0x00, 0x00, 0x00, 0x00, 0x00, 0x01, 0x14, 0x00, 0x00, 0x00,
  0x14, 0x00, 0x00, 0x00, 0x0B, 0x00, 0x00, 0x00, 0x00, 0x00,
  0x00, 0x02, 0x30, 0x00, 0x00, 0x00, 0xCC, 0xFC, 0xFF, 0xFF,
  0x22, 0x00, 0x00, 0x00, 0x6D, 0x6F, 0x64, 0x65, 0x6C, 0x5F,
  0x34, 0x2F, 0x74, 0x66, 0x2E, 0x72, 0x65, 0x73, 0x68, 0x61,
  0x70, 0x65, 0x5F, 0x32, 0x2F, 0x52, 0x65, 0x73, 0x68, 0x61,
  0x70, 0x65, 0x2F, 0x73, 0x68, 0x61, 0x70, 0x65, 0x00, 0x00,
  0x01, 0x00, 0x00, 0x00, 0x03, 0x00, 0x00, 0x00, 0x2E, 0xFD,
  0xFF, 0xFF, 0x00, 0x00, 0x00, 0x01, 0x10, 0x00, 0x00, 0x00,
  0x10, 0x00, 0x00, 0x00, 0x0A, 0x00, 0x00, 0x00, 0x34, 0x00,
  0x00, 0x00, 0x18, 0xFD, 0xFF, 0xFF, 0x27, 0x00, 0x00, 0x00,
  0x6D, 0x6F, 0x64, 0x65, 0x6C, 0x5F, 0x34, 0x2F, 0x74, 0x66,
  0x2E, 0x6E, 0x6E, 0x2E, 0x63, 0x6F, 0x6E, 0x76, 0x6F, 0x6C,
  0x75, 0x74, 0x69, 0x6F, 0x6E, 0x5F, 0x33, 0x2F, 0x63, 0x6F,
  0x6E, 0x76, 0x6F, 0x6C, 0x75, 0x74, 0x69, 0x6F, 0x6E, 0x00,
  0x04, 0x00, 0x00, 0x00, 0x0C, 0x00, 0x00, 0x00, 0x01, 0x00,
  0x00, 0x00, 0x03, 0x00, 0x00, 0x00, 0x0C, 0x00, 0x00, 0x00,
  0x8A, 0xFD, 0xFF, 0xFF, 0x00, 0x00, 0x00, 0x01, 0x10, 0x00,
  0x00, 0x00, 0x10, 0x00, 0x00, 0x00, 0x09, 0x00, 0x00, 0x00,
  0x34, 0x00, 0x00, 0x00, 0x74, 0xFD, 0xFF, 0xFF, 0x27, 0x00,
  0x00, 0x00, 0x6D, 0x6F, 0x64, 0x65, 0x6C, 0x5F, 0x34, 0x2F,
  0x74, 0x66, 0x2E, 0x6E, 0x6E, 0x2E, 0x63, 0x6F, 0x6E, 0x76,
  0x6F, 0x6C, 0x75, 0x74, 0x69, 0x6F, 0x6E, 0x5F, 0x32, 0x2F,
  0x63, 0x6F, 0x6E, 0x76, 0x6F, 0x6C, 0x75, 0x74, 0x69, 0x6F,
  0x6E, 0x00, 0x04, 0x00, 0x00, 0x00, 0x0C, 0x00, 0x00, 0x00,
  0x01, 0x00, 0x00, 0x00, 0x03, 0x00, 0x00, 0x00, 0x06, 0x00,
  0x00, 0x00, 0xE6, 0xFD, 0xFF, 0xFF, 0x00, 0x00, 0x00, 0x01,
  0x10, 0x00, 0x00, 0x00, 0x10, 0x00, 0x00, 0x00, 0x08, 0x00,
  0x00, 0x00, 0x34, 0x00, 0x00, 0x00, 0xD0, 0xFD, 0xFF, 0xFF,
  0x27, 0x00, 0x00, 0x00, 0x6D, 0x6F, 0x64, 0x65, 0x6C, 0x5F,
  0x34, 0x2F, 0x74, 0x66, 0x2E, 0x6E, 0x6E, 0x2E, 0x63, 0x6F,
  0x6E, 0x76, 0x6F, 0x6C, 0x75, 0x74, 0x69, 0x6F, 0x6E, 0x5F,
  0x31, 0x2F, 0x63, 0x6F, 0x6E, 0x76, 0x6F, 0x6C, 0x75, 0x74,
  0x69, 0x6F, 0x6E, 0x00, 0x04, 0x00, 0x00, 0x00, 0x06, 0x00,
  0x00, 0x00, 0x01, 0x00, 0x00, 0x00, 0x03, 0x00, 0x00, 0x00,
  0x06, 0x00, 0x00, 0x00, 0x42, 0xFE, 0xFF, 0xFF, 0x00, 0x00,
  0x00, 0x01, 0x10, 0x00, 0x00, 0x00, 0x10, 0x00, 0x00, 0x00,
  0x07, 0x00, 0x00, 0x00, 0x34, 0x00, 0x00, 0x00, 0x2C, 0xFE,
  0xFF, 0xFF, 0x25, 0x00, 0x00, 0x00, 0x6D, 0x6F, 0x64, 0x65,
  0x6C, 0x5F, 0x34, 0x2F, 0x74, 0x66, 0x2E, 0x6E, 0x6E, 0x2E,
  0x63, 0x6F, 0x6E, 0x76, 0x6F, 0x6C, 0x75, 0x74, 0x69, 0x6F,
  0x6E, 0x2F, 0x63, 0x6F, 0x6E, 0x76, 0x6F, 0x6C, 0x75, 0x74,
  0x69, 0x6F, 0x6E, 0x00, 0x00, 0x00, 0x04, 0x00, 0x00, 0x00,
  0x06, 0x00, 0x00, 0x00, 0x01, 0x00, 0x00, 0x00, 0x50, 0x00,
  0x00, 0x00, 0x01, 0x00, 0x00, 0x00, 0x9E, 0xFE, 0xFF, 0xFF,
  0x00, 0x00, 0x00, 0x01, 0x10, 0x00, 0x00, 0x00, 0x10, 0x00,
  0x00, 0x00, 0x06, 0x00, 0x00, 0x00, 0x30, 0x00, 0x00, 0x00,
  0x88, 0xFE, 0xFF, 0xFF, 0x21, 0x00, 0x00, 0x00, 0x6D, 0x6F,
  0x64, 0x65, 0x6C, 0x5F, 0x34, 0x2F, 0x74, 0x66, 0x2E, 0x6C,
  0x69, 0x6E, 0x61, 0x6C, 0x67, 0x2E, 0x6D, 0x61, 0x74, 0x6D,
  0x75, 0x6C, 0x5F, 0x31, 0x2F, 0x4D, 0x61, 0x74, 0x4D, 0x75,
  0x6C, 0x00, 0x00, 0x00, 0x02, 0x00, 0x00, 0x00, 0x09, 0x00,
  0x00, 0x00, 0x0C, 0x00, 0x00, 0x00, 0xEE, 0xFE, 0xFF, 0xFF,
  0x00, 0x00, 0x00, 0x01, 0x10, 0x00, 0x00, 0x00, 0x10, 0x00,
  0x00, 0x00, 0x05, 0x00, 0x00, 0x00, 0x28, 0x00, 0x00, 0x00,
  0xD8, 0xFE, 0xFF, 0xFF, 0x1B, 0x00, 0x00, 0x00, 0x6D, 0x6F,
  0x64, 0x65, 0x6C, 0x5F, 0x34, 0x2F, 0x74, 0x66, 0x2E, 0x6D,
  0x61, 0x74, 0x68, 0x2E, 0x61, 0x64, 0x64, 0x5F, 0x33, 0x2F,
  0x41, 0x64, 0x64, 0x2F, 0x79, 0x00, 0x01, 0x00, 0x00, 0x00,
  0x0C, 0x00, 0x00, 0x00, 0x32, 0xFF, 0xFF, 0xFF, 0x00, 0x00,
  0x00, 0x01, 0x10, 0x00, 0x00, 0x00, 0x10, 0x00, 0x00, 0x00,
  0x04, 0x00, 0x00, 0x00, 0x28, 0x00, 0x00, 0x00, 0x1C, 0xFF,
  0xFF, 0xFF, 0x1B, 0x00, 0x00, 0x00, 0x6D, 0x6F, 0x64, 0x65,
  0x6C, 0x5F, 0x34, 0x2F, 0x74, 0x66, 0x2E, 0x6D, 0x61, 0x74,
  0x68, 0x2E, 0x61, 0x64, 0x64, 0x5F, 0x32, 0x2F, 0x41, 0x64,
  0x64, 0x2F, 0x79, 0x00, 0x01, 0x00, 0x00, 0x00, 0x0C, 0x00,
  0x00, 0x00, 0x76, 0xFF, 0xFF, 0xFF, 0x00, 0x00, 0x00, 0x01,
  0x10, 0x00, 0x00, 0x00, 0x10, 0x00, 0x00, 0x00, 0x03, 0x00,
  0x00, 0x00, 0x28, 0x00, 0x00, 0x00, 0x60, 0xFF, 0xFF, 0xFF,
  0x1B, 0x00, 0x00, 0x00, 0x6D, 0x6F, 0x64, 0x65, 0x6C, 0x5F,
  0x34, 0x2F, 0x74, 0x66, 0x2E, 0x6D, 0x61, 0x74, 0x68, 0x2E,
  0x61, 0x64, 0x64, 0x5F, 0x31, 0x2F, 0x41, 0x64, 0x64, 0x2F,
  0x79, 0x00, 0x01, 0x00, 0x00, 0x00, 0x06, 0x00, 0x00, 0x00,
  0xBA, 0xFF, 0xFF, 0xFF, 0x00, 0x00, 0x00, 0x01, 0x10, 0x00,
  0x00, 0x00, 0x10, 0x00, 0x00, 0x00, 0x02, 0x00, 0x00, 0x00,
  0x28, 0x00, 0x00, 0x00, 0xA4, 0xFF, 0xFF, 0xFF, 0x19, 0x00,
  0x00, 0x00, 0x6D, 0x6F, 0x64, 0x65, 0x6C, 0x5F, 0x34, 0x2F,
  0x74, 0x66, 0x2E, 0x6D, 0x61, 0x74, 0x68, 0x2E, 0x61, 0x64,
  0x64, 0x2F, 0x41, 0x64, 0x64, 0x2F, 0x79, 0x00, 0x00, 0x00,
  0x01, 0x00, 0x00, 0x00, 0x06, 0x00, 0x00, 0x00, 0x00, 0x00,
  0x16, 0x00, 0x18, 0x00, 0x14, 0x00, 0x00, 0x00, 0x10, 0x00,
  0x0C, 0x00, 0x08, 0x00, 0x00, 0x00, 0x00, 0x00, 0x00, 0x00,
  0x07, 0x00, 0x16, 0x00, 0x00, 0x00, 0x00, 0x00, 0x00, 0x01,
  0x14, 0x00, 0x00, 0x00, 0x14, 0x00, 0x00, 0x00, 0x01, 0x00,
  0x00, 0x00, 0x1C, 0x00, 0x00, 0x00, 0x04, 0x00, 0x04, 0x00,
  0x04, 0x00, 0x00, 0x00, 0x08, 0x00, 0x00, 0x00, 0x69, 0x6E,
  0x70, 0x75, 0x74, 0x73, 0x5F, 0x30, 0x00, 0x00, 0x00, 0x00,
  0x04, 0x00, 0x00, 0x00, 0x01, 0x00, 0x00, 0x00, 0x01, 0x00,
  0x00, 0x00, 0x80, 0x3E, 0x00, 0x00, 0x01, 0x00, 0x00, 0x00,
  0x06, 0x00, 0x00, 0x00, 0x70, 0x00, 0x00, 0x00, 0x54, 0x00,
  0x00, 0x00, 0x44, 0x00, 0x00, 0x00, 0x34, 0x00, 0x00, 0x00,
  0x24, 0x00, 0x00, 0x00, 0x10, 0x00, 0x00, 0x00, 0x0C, 0x00,
  0x10, 0x00, 0x0F, 0x00, 0x00, 0x00, 0x08, 0x00, 0x04, 0x00,
  0x0C, 0x00, 0x00, 0x00, 0x09, 0x00, 0x00, 0x00, 0x05, 0x00,
  0x00, 0x00, 0x00, 0x00, 0x00, 0x09, 0xD0, 0xFF, 0xFF, 0xFF,
  0x16, 0x00, 0x00, 0x00, 0x00, 0x00, 0x00, 0x16, 0xDC, 0xFF,
  0xFF, 0xFF, 0x2D, 0x00, 0x00, 0x00, 0x00, 0x00, 0x00, 0x2D,
  0xE8, 0xFF, 0xFF, 0xFF, 0x01, 0x00, 0x00, 0x00, 0x00, 0x00,
  0x00, 0x01, 0xF4, 0xFF, 0xFF, 0xFF, 0x11, 0x00, 0x00, 0x00,
  0x00, 0x00, 0x00, 0x11, 0x0C, 0x00, 0x0C, 0x00, 0x0B, 0x00,
  0x00, 0x00, 0x00, 0x00, 0x04, 0x00, 0x0C, 0x00, 0x00, 0x00,
  0x03, 0x00, 0x00, 0x00, 0x00, 0x00, 0x00, 0x03
};
unsigned int model_tflite_len = 10528;